{"0": "!", "1": "\"", "2": "#", "3": "$", "4": "%", "5": "&", "6": "'", "7": "(", "8": ")", "9": "*", "10": "+", "11": ",", "12": "-", "13": ".", "14": "/", "15": "0", "16": "1", "17": "2", "18": "3", "19": "4", "20": "5", "21": "6", "22": "7", "23": "8", "24": "9", "25": ":", "26": ";", "27": "<", "28": "=", "29": ">", "30": "?", "31": "@", "32": "A", "33": "B", "34": "C", "35": "D", "36": "E", "37": "F", "38": "G", "39": "H", "40": "I", "41": "J", "42": "K", "43": "L", "44": "M", "45": "N", "46": "O", "47": "P", "48": "Q", "49": "R", "50": "S", "51": "T", "52": "U", "53": "V", "54": "W", "55": "X", "56": "Y", "57": "Z", "58": "[", "59": "\\", "60": "]", "61": "^", "62": "_", "63": "`", "64": "a", "65": "b", "66": "c", "67": "d", "68": "e", "69": "f", "70": "g", "71": "h", "72": "i", "73": "j", "74": "k", "75": "l", "76": "m", "77": "n", "78": "o", "79": "p", "80": "q", "81": "r", "82": "s", "83": "t", "84": "u", "85": "v", "86": "w", "87": "x", "88": "y", "89": "z", "90": "{", "91": "|", "92": "}", "93": "~", "94": "¡", "95": "¢", "96": "£", "97": "¤", "98": "¥", "99": "¦", "100": "§", "101": "¨", "102": "©", "103": "ª", "104": "«", "105": "¬", "106": "®", "107": "¯", "108": "°", "109": "±", "110": "²", "111": "³", "112": "´", "113": "µ", "114": "¶", "115": "·", "116": "¸", "117": "¹", "118": "º", "119": "»", "120": "¼", "121": "½", "122": "¾", "123": "¿", "124": "À", "125": "Á", "126": "Â", "127": "Ã", "128": "Ä", "129": "Å", "130": "Æ", "131": "Ç", "132": "È", "133": "É", "134": "Ê", "135": "Ë", "136": "Ì", "137": "Í", "138": "Î", "139": "Ï", "140": "Ð", "141": "Ñ", "142": "Ò", "143": "Ó", "144": "Ô", "145": "Õ", "146": "Ö", "147": "×", "148": "Ø", "149": "Ù", "150": "Ú", "151": "Û", "152": "Ü", "153": "Ý", "154": "Þ", "155": "ß", "156": "à", "157": "á", "158": "â", "159": "ã", "160": "ä", "161": "å", "162": "æ", "163": "ç", "164": "è", "165": "é", "166": "ê", "167": "ë", "168": "ì", "169": "í", "170": "î", "171": "ï", "172": "ð", "173": "ñ", "174": "ò", "175": "ó", "176": "ô", "177": "õ", "178": "ö", "179": "÷", "180": "ø", "181": "ù", "182": "ú", "183": "û", "184": "ü", "185": "ý", "186": "þ", "187": "ÿ", "188": "Ā", "189": "ā", "190": "Ă", "191": "ă", "192": "Ą", "193": "ą", "194": "Ć", "195": "ć", "196": "Ĉ", "197": "ĉ", "198": "Ċ", "199": "ċ", "200": "Č", "201": "č", "202": "Ď", "203": "ď", "204": "Đ", "205": "đ", "206": "Ē", "207": "ē", "208": "Ĕ", "209": "ĕ", "210": "Ė", "211": "ė", "212": "Ę", "213": "ę", "214": "Ě", "215": "ě", "216": "Ĝ", "217": "ĝ", "218": "Ğ", "219": "ğ", "220": "Ġ", "221": "ġ", "222": "Ģ", "223": "ģ", "224": "Ĥ", "225": "ĥ", "226": "Ħ", "227": "ħ", "228": "Ĩ", "229": "ĩ", "230": "Ī", "231": "ī", "232": "Ĭ", "233": "ĭ", "234": "Į", "235": "į", "236": "İ", "237": "ı", "238": "Ĳ", "239": "ĳ", "240": "Ĵ", "241": "ĵ", "242": "Ķ", "243": "ķ", "244": "ĸ", "245": "Ĺ", "246": "ĺ", "247": "Ļ", "248": "ļ", "249": "Ľ", "250": "ľ", "251": "Ŀ", "252": "ŀ", "253": "Ł", "254": "ł", "255": "Ń", "256": "ĠĠ", "257": "ĠĠĠĠ", "258": "in", "259": "Ġt", "260": "ĠĠĠĠĠĠĠĠ", "261": "er", "262": "ĠĠĠ", "263": "on", "264": "Ġa", "265": "re", "266": "at", "267": "st", "268": "en", "269": "or", "270": "Ġth", "271": "ĊĊ", "272": "Ġc", "273": "le", "274": "Ġs", "275": "it", "276": "an", "277": "ar", "278": "al", "279": "Ġthe", "280": "Ġp", "281": "Ġf", "282": "ou", "283": "Ġ=", "284": "is", "285": "ĠĠĠĠĠĠĠ", "286": "ing", "287": "es", "288": "Ġw", "289": "ion", "290": "ed", "291": "ic", "292": "Ġb", "293": "Ġd", "294": "et", "295": "Ġm", "296": "Ġo", "297": "ĉĉ", "298": "ro", "299": "as", "300": "el", "301": "ct", "302": "nd", "303": "Ġin", "304": "Ġh", "305": "ent", "306": "id", "307": "Ġn", "308": "am", "309": "ĠĠĠĠĠĠĠĠĠĠĠ", "310": "Ġto", "311": "Ġre", "312": "--", "313": "Ġ{", "314": "Ġof", "315": "om", "316": "im", "317": "čĊ", "318": "Ġ(", "319": "il", "320": "//", "321": "Ġand", "322": "ur", "323": "se", "324": "Ġl", "325": "ex", "326": "ĠS", "327": "ad", "328": "Ġ\"", "329": "ch", "330": "ut", "331": "if", "332": "**", "333": "Ġ}", "334": "em", "335": "ol", "336": "ĠĠĠĠĠĠĠĠĠĠĠĠĠĠĠĠ", "337": "th", "338": "Ġg", "339": "ig", "340": "iv", "341": "ce", "342": "od", "343": "Ġv", "344": "ate", "345": "ĠT", "346": "ag", "347": "ay", "348": "Ġ*", "349": "ot", "350": "us", "351": "ĠC", "352": "Ġst", "353": "ĠI", "354": "un", "355": "ul", "356": "ue", "357": "ĠA", "358": "ow", "359": "Ġ'", "360": "ew", "361": "Ġ<", "362": "ation", "363": "()", "364": "Ġfor", "365": "ab", "366": "ort", "367": "um", "368": "ame", "369": "Ġis", "370": "pe", "371": "tr", "372": "ck", "373": "âĢ", "374": "Ġy", "375": "ist", "376": "----", "377": "he", "378": "Ġe", "379": "lo", "380": "ĠM", "381": "Ġbe", "382": "ers", "383": "Ġon", "384": "Ġcon", "385": "ap", "386": "ub", "387": "ĠP", "388": "ĠĠĠĠĠĠĠĠĠĠĠĠĠĠĠ", "389": "ass", "390": "int", "391": "ly", "392": "urn", "393": "Ġ$", "394": "av", "395": "port", "396": "ir", "397": "->", "398": "nt", "399": "ction", "400": "end", "401": "Ġde", "402": "ith", "403": "out", "404": "turn", "405": "our", "406": "ĠĠĠĠĠ", "407": "lic", "408": "res", "409": "pt", "410": "==", "411": "Ġthis", "412": "Ġwh", "413": "Ġif", "414": "ĠD", "415": "ver", "416": "age", "417": "ĠB", "418": "ht", "419": "ext", "420": "=\"", "421": "Ġthat", "422": "****", "423": "ĠR", "424": "Ġit", "425": "ess", "426": "ĠF", "427": "Ġr", "428": "os", "429": "and", "430": "Ġas", "431": "ect", "432": "ke", "433": "rom", "434": "Ġ//", "435": "con", "436": "ĠL", "437": "(\"", "438": "qu", "439": "lass", "440": "Ġwith", "441": "iz", "442": "de", "443": "ĠN", "444": "Ġal", "445": "op", "446": "up", "447": "get", "448": "ile", "449": "Ġan", "450": "ata", "451": "ore", "452": "ri", "453": "Ġpro", "454": "ĉĉĉĉ", "455": "ter", "456": "ain", "457": "ĠW", "458": "ĠE", "459": "Ġcom", "460": "Ġreturn", "461": "art", "462": "ĠH", "463": "ack", "464": "import", "465": "ublic", "466": "Ġor", "467": "est", "468": "ment", "469": "ĠG", "470": "able", "471": "Ġ-", "472": "ine", "473": "ill", "474": "ind", "475": "ere", "476": "::", "477": "ity", "478": "Ġ+", "479": "Ġtr", "480": "elf", "481": "ight", "482": "('", "483": "orm", "484": "ult", "485": "str", "486": "..", "487": "\",", "488": "Ġyou", "489": "ype", "490": "pl", "491": "Ġnew", "492": "Ġj", "493": "ĠĠĠĠĠĠĠĠĠĠĠĠĠĠĠĠĠĠĠ", "494": "Ġfrom", "495": "Ġex", "496": "ĠO", "497": "ld", "498": "Ġ[", "499": "oc", "500": "Ġse", "501": "Ġle", "502": "--------", "503": ".s", "504": "',", "505": "ant", "506": "Ġat", "507": "ase", "508": ".c", "509": "Ġch", "510": "</", "511": "ave", "512": "ang", "513": "Ġare", "514": "Ġint", "515": "âĢĻ", "516": "_t", "517": "ert", "518": "ial", "519": "act", "520": "ive", "521": "ode", "522": "ost", "523": "Ġclass", "524": "Ġnot", "525": "og", "526": "ord", "527": "alue", "528": "all", "529": "ff", "530": "ont", "531": "ime", "532": "are", "533": "ĠU", "534": "Ġpr", "535": "Ġ:", "536": "ies", "537": "ize", "538": "ure", "539": "Ġby", "540": "ire", "541": ".p", "542": "Ġsh", "543": "ice", "544": "ast", "545": "ption", "546": "tring", "547": "ok", "548": "__", "549": "cl", "550": "##", "551": "Ġhe", "552": "ard", "553": ").", "554": "Ġ@", "555": "iew", "556": "ĉĉĉ", "557": "Ġwas", "558": "ip", "559": "this", "560": "Ġu", "561": "ĠThe", "562": "ide", "563": "ace", "564": "ib", "565": "ac", "566": "rou", "567": "Ġwe", "568": "ject", "569": "Ġpublic", "570": "ak", "571": "ve", "572": "ath", "573": "oid", "574": "Ġ=>", "575": "ust", "576": "que", "577": "Ġres", "578": "))", "579": "'s", "580": "Ġk", "581": "ans", "582": "yst", "583": "unction", "584": "********", "585": "Ġi", "586": "Ġus", "587": "pp", "588": "one", "589": "ail", "590": "====", "591": "name", "592": "Ġstr", "593": "Ġ/", "594": "Ġ&", "595": "ach", "596": "div", "597": "ystem", "598": "ell", "599": "Ġhave", "600": "err", "601": "ould", "602": "ull", "603": "pon", "604": "ĠJ", "605": "_p", "606": "Ġ==", "607": "ign", "608": "St", "609": "Ġpl", "610": "form", "611": "put", "612": "ount", "613": "dd", "614": "ite", "615": "Ġget", "616": "rr", "617": "ome", "618": "ĠâĢ", "619": "aram", "620": "cc", "621": "Ġ*/", "622": "ER", "623": "In", "624": "les", "625": "_s", "626": "ong", "627": "ie", "628": "Ġcan", "629": "ĠV", "630": "erv", "631": "pr", "632": "Ġun", "633": "row", "634": "ber", "635": "Ġdo", "636": "ll", "637": "Ġel", "638": "Ġself", "639": "ated", "640": "ary", "641": "Ġ.", "642": "']", "643": "ud", "644": "Ġen", "645": "ĠTh", "646": "ĠĠĠĠĠĠĠĠĠĠĠĠĠĠĠĠĠĠĠĠĠĠĠ", "647": "te", "648": "_c", "649": "uct", "650": "Ġab", "651": "ork", "652": ".get", "653": "Ġ#", "654": "aw", "655": "ress", "656": "ob", "657": "Name", "658": "app", "659": "['", "660": "Ġall", "661": "ory", "662": "ition", "663": "ance", "664": "ear", "665": "Ġcont", "666": "vent", "667": "ia", "668": "Ġwill", "669": "IN", "670": "ĠĠĠĠĠĠĠĠĠ", "671": "return", "672": "Ġ</", "673": "data", "674": "Re", "675": "ple", "676": "ild", "677": "ther", "678": "Ġyour", "679": "($", "680": "Ġout", "681": "),", "682": "Ġhas", "683": "String", "684": "so", "685": "Ġup", "686": "ax", "687": "Ġdef", "688": "Ġbo", "689": "ge", "690": "alse", "691": "ON", "692": "per", "693": "ich", "694": "Ġbut", "695": "ĠĊ", "696": "Ġ_", "697": "_m", "698": "add", "699": "quest", "700": "odel", "701": "self", "702": "ery", "703": "ft", "704": "ens", "705": "////", "706": "ake", "707": ".C", "708": "Ġgo", "709": "Ġfunction", "710": "ĠK", "711": "ivate", "712": "Ġim", "713": "Ġconst", "714": ".t", "715": "Ġvoid", "716": "Ġset", "717": "ĠSystem", "718": "cri", "719": "li", "720": "ĉif", "721": ".m", "722": "ally", "723": "set", "724": "ep", "725": "âĢĻs", "726": "bo", "727": "def", "728": "Ġme", "729": "Ġ!", "730": "atch", "731": "\">", "732": "ec", "733": "ĠIn", "734": "ph", "735": "Ġ|", "736": "_f", "737": "Ġvar", "738": "ence", "739": "Id", "740": "ree", "741": "ink", "742": "lect", "743": "ug", "744": "eth", "745": "Ġelse", "746": "----------------", "747": "cont", "748": "Ġso", "749": "atic", "750": "Ġlo", "751": "pro", "752": "ton", "753": "ss", "754": "own", "755": "abel", "756": "oint", "757": "ous", "758": "eld", "759": "ST", "760": "The", "761": "ĠĠĠĠĠĠĠĠĠĠĠĠĠĠĠĠĠĠĠĠĠĠĠĠĠĠĠĠĠĠĠĠ", "762": "RE", "763": "\":", "764": "olor", "765": "tp", "766": "eg", "767": "key", "768": "ude", "769": "ĠSt", "770": "ound", "771": "Ġar", "772": "ener", "773": "ser", "774": "bject", "775": "essage", "776": "fer", "777": "Ġmore", "778": "ations", "779": "ents", "780": "Ġhis", "781": "Ġthey", "782": ".S", "783": "ĠY", "784": "use", "785": "ne", "786": "ish", "787": "old", "788": "_d", "789": "io", "790": "ield", "791": "Ġper", "792": "Cont", "793": "ings", "794": "####", "795": "Ġdata", "796": "Ġsa", "797": "ef", "798": "fo", "799": "Ġone", "800": "eng", "801": "Ġdis", "802": "AT", "803": "Ġname", "804": "Ġtrue", "805": "val", "806": "led", "807": ".f", "808": "Ġne", "809": "Ġend", "810": ".T", "811": "cre", "812": "ark", "813": "log", "814": "Ex", "815": "error", "816": "_id", "817": "urre", "818": "ange", "819": "Ġnull", "820": "rray", "821": "Ġmy", "822": "pan", "823": "ict", "824": "ator", "825": "View", "826": "List", "827": "ĉreturn", "828": "âĢĿ", "829": "Ġpre", "830": "Ġx", "831": "clude", "832": "arg", "833": "ov", "834": ".h", "835": "Ġ>", "836": "Ġtheir", "837": "')", "838": "irst", "839": "ick", "840": "gh", "841": "LE", "842": "OR", "843": "Ġprivate", "844": "tem", "845": "čĊčĊ", "846": "user", "847": "Ġ)", "848": "com", "849": ".A", "850": "Ġid", "851": "read", "852": "Ġwho", "853": "_b", "854": "Ġtime", "855": "Ġman", "856": "ry", "857": "========", "858": "roup", "859": "rop", "860": "public", "861": "vel", "862": "umber", "863": "ble", "864": "Ġwhich", "865": "****************", "866": "Ġany", "867": "Ġfalse", "868": "we", "869": "Ġvalue", "870": "Ġli", "871": "\")", "872": "nder", "873": "gr", "874": "Ġno", "875": "param", "876": "fig", "877": ".com", "878": "Ġapp", "879": "_l", "880": "ions", "881": ".D", "882": "ĠCh", "883": "Ġabout", "884": "Ġadd", "885": "Ġsu", "886": "Ġstring", "887": "ID", "888": "Ġover", "889": "string", "890": ".l", "891": "ource", "892": "_C", "893": "Ġqu", "894": "ĠString", "895": "ca", "896": "SE", "897": "Ġro", "898": "sh", "899": "ual", "900": "Type", "901": "son", "902": "new", "903": "ern", "904": "Ġag", "905": "AR", "906": "].", "907": "Ġ?", "908": "ical", "909": "Ġdes", "910": "uth", "911": "ix", "912": "ays", "913": "Ġtype", "914": "'t", "915": "ault", "916": "Ġinter", "917": "var", "918": ".b", "919": "Ġpart", "920": ".d", "921": "urrent", "922": "IT", "923": "EN", "924": "enc", "925": "(f", "926": "ra", "927": "value", "928": "cho", "929": "utton", "930": "ose", "931": "Ġ!=", "932": "ater", "933": "Ã©", "934": "reate", "935": "oll", "936": "pos", "937": "yle", "938": "ng", "939": "AL", "940": "using", "941": "ames", "942": "ates", "943": "ely", "944": "Ġwork", "945": "Ġem", "946": "inal", "947": "Ġsp", "948": "Ġwhen", "949": ".set", "950": "ĠĠĠĠĠĠ", "951": "to", "952": "quire", "953": "indow", "954": "lement", "955": "pect", "956": "ash", "957": "[i", "958": "Ġuse", "959": ".F", "960": "pec", "961": "Ġad", "962": "ove", "963": "ception", "964": "ength", "965": "include", "966": "ader", "967": "ĠĠĠĠĠĠĠĠĠĠĠĠĠĠĠĠĠĠĠĠĠĠĠĠĠĠĠ", "968": "atus", "969": "Th", "970": "itle", "971": "rit", "972": "void", "973": "().", "974": "Ġoff", "975": "Ġother", "976": "Ġ&&", "977": "ms", "978": "Ġbeen", "979": "Ġte", "980": "ml", "981": "co", "982": "nc", "983": "ervice", "984": "Ġ%", "985": "ann", "986": "ade", "987": "ĊĊĊĊ", "988": "lock", "989": "const", "990": "ponse", "991": "Ġsup", "992": "++", "993": "date", "994": "Ġacc", "995": "Ġhad", "996": "Ġbu", "997": "ĠRe", "998": "Ġwere", "999": "Ġfile", "1000": "Ġwould", "1001": "ĠâĢľ", "1002": "ven", "1003": "iss", "1004": "Ġour", "1005": "class", "1006": "raw", "1007": "Ġyear", "1008": "Data", "1009": "Ġval", "1010": "Ġsome", "1011": "fter", "1012": "ys", "1013": "Ġ///", "1014": "round", "1015": "view", "1016": "Ġpe", "1017": "Ġthere", "1018": "Ġsaid", "1019": "du", "1020": "of", "1021": "line", "1022": "/*", "1023": "duct", "1024": "Ġher", "1025": "ĠĠĠĠĠĠĠĠĠĠĠĠĠ", "1026": "Res", "1027": "Ġco", "1028": "Ġcomm", "1029": "ise", "1030": "min", "1031": "ĠĠĠĠĊ", "1032": "#include", "1033": "ethod", "1034": ".P", "1035": "ute", "1036": "Ġass", "1037": "Int", "1038": "ask", "1039": "loc", "1040": "Ġlike", "1041": "ody", "1042": "Ġlet", "1043": "load", "1044": "Ġam", "1045": "rol", "1046": "Ġgr", "1047": "yp", "1048": "Ġalso", "1049": "ĠIt", "1050": "url", "1051": "ific", "1052": "ors", "1053": "_P", "1054": "_n", "1055": "igh", "1056": "Ġthan", "1057": "Com", "1058": "AN", "1059": "UL", "1060": "ating", "1061": "ĠThis", "1062": "ref", "1063": "_S", "1064": "Ġstatic", "1065": "roll", "1066": "Ġjust", "1067": "Ġresult", "1068": "ian", "1069": "idth", "1070": "Ġthem", "1071": "der", "1072": "reak", "1073": "Con", "1074": "://", "1075": "ule", "1076": "...", "1077": "arch", "1078": "ement", "1079": "Ġ<<", "1080": "ush", "1081": "ense", "1082": "arr", "1083": "Ġinto", "1084": "cess", "1085": "amp", "1086": "ied", "1087": "ument", "1088": "Ġ\\", "1089": "],", "1090": "wo", "1091": "als", "1092": "Ġwhat", "1093": "anc", "1094": "Value", "1095": "='", "1096": "olum", "1097": "Ġpos", "1098": "ages", "1099": "ayer", "1100": "Ġsc", "1101": "ues", "1102": "_T", "1103": "Ġlist", "1104": "(s", "1105": "Ġcase", "1106": "Ch", "1107": "ĉĉĉĉĉ", "1108": "////////", "1109": "ponent", "1110": "Ġz", "1111": "Ġkn", "1112": "let", "1113": "DE", "1114": "red", "1115": "Ġfe", "1116": "Ġ,", "1117": "(t", "1118": "Ġfirst", "1119": "word", "1120": "Ġimport", "1121": "Ġact", "1122": "Ġchar", "1123": "CT", "1124": "ĠTr", "1125": "ople", "1126": "={", "1127": "ĉf", "1128": "ient", "1129": "cent", "1130": ".j", "1131": "lection", "1132": "Ġonly", "1133": "Ġprint", "1134": "mer", "1135": ".W", "1136": "ock", "1137": "Ġ--", "1138": "Text", "1139": "Ġop", "1140": "ank", "1141": "Ġits", "1142": "Ġback", "1143": "[\"", "1144": "Ġneed", "1145": "Ġcl", "1146": "Ġsub", "1147": "Ġla", "1148": "((", "1149": ".\"", "1150": "Object", "1151": "Ġstart", "1152": "file", "1153": "(self", "1154": "ner", "1155": "ey", "1156": "Ġuser", "1157": "Ġent", "1158": "ĠCom", "1159": "its", "1160": "ĠCon", "1161": "ouble", "1162": "ower", "1163": "item", "1164": "very", "1165": "ĠWe", "1166": "lick", "1167": "ĠQ", "1168": "php", "1169": "ttp", "1170": "':", "1171": "ics", "1172": "Ġunder", "1173": ".L", "1174": ");", "1175": "ices", "1176": "Ġreg", "1177": "ĉpublic", "1178": "SS", "1179": "Ġthen", "1180": "reat", "1181": "ious", "1182": ".G", "1183": "ek", "1184": "irect", "1185": "heck", "1186": "cript", "1187": "ning", "1188": "ĠUn", "1189": "Ġmay", "1190": "ĠWh", "1191": "Bo", "1192": "Item", "1193": "struct", "1194": ".st", "1195": "ream", "1196": "ible", "1197": "loat", "1198": "Ġorg", "1199": "und", "1200": "sum", "1201": "_in", "1202": "../", "1203": "_M", "1204": "Ġhow", "1205": "rite", "1206": "To", "1207": "ww", "1208": "Ġpeople", "1209": "index", "1210": ".n", "1211": "http", "1212": "(m", "1213": "ector", "1214": "Ġind", "1215": "Ġjav", "1216": "ĠHe", "1217": "_st", "1218": "ful", "1219": "ole", "1220": "Ġshould", "1221": "opy", "1222": "elp", "1223": "ier", "1224": "_name", "1225": "erson", "1226": "ION", "1227": "ote", "1228": "Ġtest", "1229": "Ġbet", "1230": "rror", "1231": "ular", "1232": "ãĢ", "1233": "ĠÐ", "1234": "bs", "1235": "ting", "1236": "Ġmake", "1237": "Tr", "1238": "Ġafter", "1239": "arget", "1240": "RO", "1241": "olumn", "1242": "rc", "1243": "_re", "1244": "define", "1245": "Ġright", "1246": "right", "1247": "day", "1248": "Ġlong", "1249": "[]", "1250": "(p", "1251": "td", "1252": "cond", "1253": "ĠPro", "1254": "Ġrem", "1255": "ptions", "1256": "vid", "1257": ".g", "1258": "Ġext", "1259": "Ġ__", "1260": "pace", "1261": "mp", "1262": "Ġmin", "1263": "stance", "1264": "air", "1265": "action", "1266": "wh", "1267": "type", "1268": "util", "1269": "ait", "1270": "<?", "1271": "IC", "1272": "text", "1273": "Ġph", "1274": "Ġfl", "1275": ".M", "1276": "ccess", "1277": "br", "1278": "fore", "1279": "ersion", "1280": ".re", "1281": "ateg", "1282": "Ġloc", "1283": "ins", "1284": "-s", "1285": "trib", "1286": "ĠInt", "1287": "Ġarray", "1288": ",\"", "1289": "Pro", "1290": "(c", "1291": "ession", "1292": "Ġshe", "1293": "\"]", "1294": "aph", "1295": "Ġexp", "1296": "erty", "1297": "ĠSe", "1298": "Ġpar", "1299": "unc", "1300": "ET", "1301": "Ġread", "1302": "print", "1303": "Ġrel", "1304": "Ġform", "1305": "Ġdr", "1306": "Exception", "1307": "input", "1308": "Ġtrans", "1309": "########", "1310": "order", "1311": "By", "1312": "Ġaw", "1313": "ities", "1314": "uff", "1315": "play", "1316": ".add", "1317": "ĠâĢĵ", "1318": "Ġwant", "1319": "Ġcomp", "1320": "ments", "1321": "Ġ||", "1322": "az", "1323": "be", "1324": "Ġnumber", "1325": "Ġrequire", "1326": "ĠEx", "1327": "Ġcol", "1328": "Ġkey", "1329": "ember", "1330": "Ġtwo", "1331": "Ġsize", "1332": "Ġwhere", "1333": "UT", "1334": "result", "1335": "ĠĠĠĠĠĠĠĠĠĠĠĠĠĠĠĠĠĠĠĠĠĠĠĠĠĠĠĠĠĠĠ", "1336": "ough", "1337": "orld", "1338": "ood", "1339": "uch", "1340": "ative", "1341": "ger", "1342": "arent", "1343": "Ġ/*", "1344": "Ġarg", "1345": "Ġwhile", "1346": "(this", "1347": "Ġrec", "1348": "Ġdif", "1349": "State", "1350": "Ġspec", "1351": "ride", "1352": "_F", "1353": "Ġlook", "1354": "AM", "1355": "ility", "1356": "eter", "1357": "âĢĻt", "1358": "ĊĊĊ", "1359": "ayout", "1360": "--------------------------------", "1361": "ager", "1362": "Ġcould", "1363": "Ġbr", "1364": "ends", "1365": "ures", "1366": "Ġknow", "1367": "ets", "1368": "ĠIf", "1369": "ĠSh", "1370": ".w", "1371": "back", "1372": "Ġser", "1373": "Ġ+=", "1374": "Ġfr", "1375": "Ġhand", "1376": "Ind", "1377": "ULL", "1378": "Im", "1379": "Ġmost", "1380": "Ġtry", "1381": "Ġnow", "1382": "rough", "1383": "ackage", "1384": "Ġhim", "1385": "._", "1386": "ify", "1387": "Ġbreak", "1388": "ren", "1389": "#define", "1390": "itt", "1391": "Ġap", "1392": "ĉc", "1393": "(n", "1394": "ĠYou", "1395": "-m", "1396": "Ġevery", "1397": "ustom", "1398": "lient", "1399": "ocument", "1400": "cription", "1401": "Error", "1402": "-b", "1403": "Ð¾", "1404": "][", "1405": "trans", "1406": "Ġpoint", "1407": "Ġstd", "1408": "Ġfil", "1409": "Time", "1410": "Ġmod", "1411": "Ġ->", "1412": "Ġerror", "1413": "ah", "1414": "Ġtext", "1415": "roller", "1416": "lose", "1417": "ql", "1418": "Ġpol", "1419": "></", "1420": "Ġshow", "1421": "User", "1422": "ased", "1423": "Ġfind", "1424": "Ð°", "1425": "ED", "1426": "span", "1427": "enu", "1428": "Ġcurrent", "1429": "Ġused", "1430": "cept", "1431": "clud", "1432": "Ġplay", "1433": "Ġlog", "1434": "ution", "1435": "fl", "1436": "Ġsee", "1437": "indows", "1438": "Ġhelp", "1439": "Ġthese", "1440": "Ġpass", "1441": "Ġdown", "1442": "Ġeven", "1443": "ason", "1444": "uild", "1445": "from", "1446": "(d", "1447": "Ġbl", "1448": "label", "1449": "else", "1450": "Ðµ", "1451": "Ġ(!", "1452": "ized", "1453": "(),", "1454": "Ġob", "1455": "Ġitem", "1456": "ump", "1457": "UR", "1458": "orn", "1459": "Ġdon", "1460": "Se", "1461": "man", "1462": "ample", "1463": "tn", "1464": "================", "1465": "He", "1466": "gram", "1467": "Ġdid", "1468": "wn", "1469": "_h", "1470": "iver", "1471": "Ġsm", "1472": "Ġthrough", "1473": "ĠAn", "1474": "che", "1475": "Ġinv", "1476": "ouse", "1477": "Ġes", "1478": "ĠNew", "1479": "export", "1480": "mary", "1481": "uto", "1482": "ler", "1483": "Ġlast", "1484": "Ġevent", "1485": "try", "1486": "ï¼", "1487": "ily", "1488": "igned", "1489": "ines", "1490": "ollow", "1491": "icense", "1492": "sole", "1493": "lear", "1494": "(int", "1495": "Ġagain", "1496": "Ġhigh", "1497": "html", "1498": "Index", "1499": "uthor", "1500": "Ġline", "1501": "Event", "1502": "_D", "1503": "Ġdoes", "1504": "itial", "1505": "Ġcr", "1506": "ars", "1507": "Ġtem", "1508": "cause", "1509": "face", "1510": "Ġ`", "1511": "_A", "1512": "Button", "1513": "ature", "1514": "ected", "1515": "ES", "1516": "ister", "1517": "ĉĊ", "1518": "Ġbefore", "1519": "ale", "1520": "other", "1521": "Ġbecause", "1522": "roid", "1523": "Ġed", "1524": "ik", "1525": "reg", "1526": "ĠDe", "1527": "Ġdist", "1528": "Ġstate", "1529": "Ġcons", "1530": "rint", "1531": "att", "1532": "Ġhere", "1533": "ined", "1534": "Ġfinal", "1535": "Ġ\"\"", "1536": "Key", "1537": "LO", "1538": "Ġdel", "1539": "pty", "1540": "thing", "1541": "ĠAnd", "1542": "Ġrun", "1543": "ĠX", "1544": "ym", "1545": ".app", "1546": "Ġvery", "1547": "ces", "1548": "_N", "1549": "ared", "1550": "ward", "1551": "list", "1552": "ited", "1553": "olog", "1554": "itch", "1555": "Box", "1556": "ife", "1557": "Ġac", "1558": "Ġmodel", "1559": "Ġmon", "1560": "Ġway", "1561": "lete", "1562": "Ġcall", "1563": "Ġatt", "1564": "Ġcal", "1565": "vert", "1566": "Ġdec", "1567": "lease", "1568": "oun", "1569": "fr", "1570": "formation", "1571": "etail", "1572": "Ġnum", "1573": "aj", "1574": "query", "1575": "Ġwell", "1576": "Ġobject", "1577": "ĠAs", "1578": "Ġyears", "1579": "Color", "1580": "IS", "1581": "Ġdefault", "1582": "Wh", "1583": "Ġins", "1584": "aint", "1585": "Ġjava", "1586": "Ġsim", "1587": "ĠAr", "1588": "mon", "1589": "til", "1590": "):", "1591": "Set", "1592": "atter", "1593": "Ġview", "1594": "Ġpres", "1595": "array", "1596": "We", "1597": "At", "1598": "Ġbel", "1599": "Ġmany", "1600": "Man", "1601": "ender", "1602": "Ġbeing", "1603": "Ġgood", "1604": "ĉĉĉĉĉĉ", "1605": "ational", "1606": "ware", "1607": ".log", "1608": "Ġusing", "1609": "_B", "1610": "Ġ:=", "1611": "_w", "1612": "ists", "1613": "lish", "1614": "Ġstud", "1615": "ĠAl", "1616": "Ġgu", "1617": "config", "1618": "uring", "1619": "time", "1620": "oken", "1621": "amespace", "1622": "Ġrequest", "1623": "Ġchild", "1624": "ĠÃ", "1625": "lob", "1626": "Ġparam", "1627": "Ġecho", "1628": "function", "1629": "********************************", "1630": "ps", "1631": "Element", "1632": "alk", "1633": "lication", "1634": "by", "1635": "Size", "1636": "rawing", "1637": "Ġperson", "1638": "ĠĠĠĠĠĠĠĠĠĠĠĠĠĠĠĠĠ", "1639": "\\n", "1640": "object", "1641": "ince", "1642": "En", "1643": "File", "1644": "uf", "1645": "ffect", "1646": "AC", "1647": "Ġstyle", "1648": "summary", "1649": "Ġque", "1650": "_r", "1651": "Ġ($", "1652": "Model", "1653": "ident", "1654": "Ġmethod", "1655": "IL", "1656": "ott", "1657": "less", "1658": "ING", "1659": "Ġ()", "1660": "Ġexpect", "1661": "ync", "1662": "package", "1663": "urs", "1664": "Ġprot", "1665": "./", "1666": "pre", "1667": "ma", "1668": "Ġsur", "1669": "Ġfound", "1670": "Info", "1671": "par", "1672": "imes", "1673": ".e", "1674": "ains", "1675": "Ġpost", "1676": "-d", "1677": "olean", "1678": "Ġsl", "1679": "PE", "1680": "Ġsuch", "1681": "select", "1682": "ainer", "1683": "Ġthink", "1684": "Ġdiffer", "1685": ".r", "1686": "FF", "1687": "ool", "1688": "plate", "1689": "qual", "1690": "ĠFor", "1691": "Ġmuch", "1692": "uc", "1693": "(new", "1694": "odule", "1695": "Ġsom", "1696": "Ġhttp", "1697": "ĠList", "1698": "Ġcount", "1699": "Ġinst", "1700": "char", "1701": "mit", "1702": ".id", "1703": "aking", "1704": "Ġgener", "1705": "px", "1706": "vice", "1707": "_data", "1708": "ĠNULL", "1709": "idd", "1710": "ãĢĤ", "1711": "Ġmed", "1712": "org", "1713": "ider", "1714": "ache", "1715": "work", "1716": "Ġcheck", "1717": "ween", "1718": "Ġ((", "1719": "the", "1720": "ants", "1721": "><", "1722": ".B", "1723": "-c", "1724": "Ġopen", "1725": "Ġest", "1726": "ĠĠĠĠĠĠĠĠĊ", "1727": "Ġnext", "1728": "IM", "1729": "ÑĤ", "1730": "OT", "1731": "Ã³", "1732": "Ġfollow", "1733": "content", "1734": "ĠĠĠĠĠĠĠĠĠĠĠĠ", "1735": "Ġinclud", "1736": "HE", "1737": "ĠRes", "1738": "Ġhref", "1739": "Ð¸", "1740": "Ġcar", "1741": "ypes", "1742": "image", "1743": "Un", "1744": "Ġbool", "1745": "AD", "1746": "Ġgame", "1747": ".Form", "1748": "rows", "1749": "*/", "1750": "velop", "1751": ".Drawing", "1752": "Ġpath", "1753": "ision", "1754": "Ġeach", "1755": "ĠPl", "1756": "_type", "1757": "Path", "1758": "nection", "1759": "Ġav", "1760": "').", "1761": "Ġsupport", "1762": "ENT", "1763": "rem", "1764": "\").", "1765": "Ġown", "1766": "Ġcor", "1767": "count", "1768": "miss", "1769": "ually", "1770": "Ġmem", "1771": "std", "1772": "ience", "1773": "search", "1774": "Form", "1775": "Ġsex", "1776": "ename", "1777": "Ġsign", "1778": "Ġet", "1779": "ĠĠĠĠĠĠĠĠĠĠ", "1780": "','", "1781": "ĠApp", "1782": "Ġthose", "1783": "off", "1784": "Ġerr", "1785": "Ġsystem", "1786": "Ġbest", "1787": "code", "1788": "Ġsame", "1789": "Ġdi", "1790": "uss", "1791": "Ġcreate", "1792": "ather", "1793": "Array", "1794": ".in", "1795": "fe", "1796": "Service", "1797": "UN", "1798": "ats", "1799": "ĠZ", "1800": "alth", "1801": "Ġmade", "1802": "true", "1803": "AB", "1804": "Ġmark", "1805": "rid", "1806": "ified", "1807": "yn", "1808": "press", "1809": "Ġgroup", "1810": "Ġfin", "1811": "ĠLicense", "1812": "Field", "1813": "eger", "1814": "Ġworld", "1815": "iness", "1816": "ty", "1817": "Ġprocess", "1818": "(b", "1819": "Ġcre", "1820": "arn", "1821": "ives", "1822": "Ġmain", "1823": "ideo", "1824": "_g", "1825": "AG", "1826": "valid", "1827": "img", "1828": "PI", "1829": "Ġcolor", "1830": "Ġreport", "1831": "Ġtake", "1832": "rib", "1833": "OM", "1834": "Ġday", "1835": "Request", "1836": "Ġsk", "1837": "bers", "1838": "ĉs", "1839": ".Add", "1840": "oot", "1841": "Image", "1842": "Ġcomple", "1843": "ollection", "1844": "Ġtop", "1845": "Ġfree", "1846": "AS", "1847": "De", "1848": "ĠOn", "1849": "IG", "1850": "eta", "1851": "Date", "1852": "Ġaction", "1853": "Over", "1854": "itor", "1855": "ĠĠĠĠĠĠĠĠĠĠĠĠĠĠĠĠĠĠĠĠĠĠĠĠĠĠĠĠĠĠĠĠĠĠĠ", "1856": "not", "1857": "Ġindex", "1858": "her", "1859": "icon", "1860": "On", "1861": "ivity", "1862": "mand", "1863": ".Windows", "1864": "OL", "1865": "Ġreal", "1866": "Ġmax", "1867": "land", "1868": "....", "1869": "raph", "1870": "Ġbuild", "1871": "leg", "1872": "assword", "1873": "âĢ¦", "1874": "ook", "1875": "uck", "1876": "Ġmessage", "1877": "test", "1878": "ivers", "1879": "Ġinput", "1880": "Ġart", "1881": "Ġbetween", "1882": "Get", "1883": "enter", "1884": "ground", "1885": "ene", "1886": "Ã¡", "1887": ".length", "1888": "Node", "1889": "(i", "1890": "Class", "1891": "for", "1892": "ĠâĢĶ", "1893": "ten", "1894": "oin", "1895": "Ġke", "1896": "ui", "1897": "ĠIN", "1898": "Ġtable", "1899": "sub", "1900": "ĠLe", "1901": "Ġhead", "1902": "Ġmust", "1903": "////////////////", "1904": ".util", "1905": "Context", "1906": "Ġorder", "1907": "Ġmov", "1908": "over", "1909": "Ġcontin", "1910": "Ġsay", "1911": "static", "1912": ".Text", "1913": "ĠclassName", "1914": "pany", "1915": "Ġter", "1916": "head", "1917": "rg", "1918": "Ġproduct", "1919": "This", "1920": ".âĢĿ", "1921": "ĠBut", "1922": "loy", "1923": "Ġdouble", "1924": "sg", "1925": "Ġplace", "1926": ".x", "1927": "message", "1928": "Ġinformation", "1929": "private", "1930": "Ġoper", "1931": "ced", "1932": "db", "1933": "\"></", "1934": "Param", "1935": "icle", "1936": "Ġweek", "1937": "Ġprop", "1938": "table", "1939": "idget", "1940": "place", "1941": "Prop", "1942": "ĠAll", "1943": "els", "1944": "box", "1945": ".R", "1946": "ĠTo", "1947": "iter", "1948": "Sh", "1949": "uration", "1950": "older", "1951": "_list", "1952": "come", "1953": "Ġsw", "1954": "ization", "1955": "ĉfor", "1956": "bl", "1957": "Ġprogram", "1958": "(e", "1959": "ape", "1960": "check", "1961": ".Forms", "1962": "Ġund", "1963": "ategory", "1964": "ags", "1965": "Ġresponse", "1966": "US", "1967": "request", "1968": "Ġstruct", "1969": "escription", "1970": "Ġcode", "1971": "_H", "1972": "uffer", "1973": "Ġwithout", "1974": "lobal", "1975": "Manager", "1976": "ilter", "1977": "PO", "1978": "ĉthis", "1979": "option", "1980": "Ġsol", "1981": "Ġ===", "1982": "akes", "1983": "Controller", "1984": "Message", "1985": "Ġref", "1986": "ever", "1987": "ĠSo", "1988": "aining", "1989": ".append", "1990": "Ġstill", "1991": "Ġprovid", "1992": "Ġassert", "1993": "med", "1994": "Ġcap", "1995": "usiness", "1996": "Ġrep", "1997": "tings", "1998": "ved", "1999": ".N", "2000": "api", "2001": "OD", "2002": "Ġfield", "2003": "iven", "2004": "oto", "2005": "âĢľ", "2006": "col", "2007": "(x", "2008": "ght", "2009": "Result", "2010": "Code", "2011": ".is", "2012": "link", "2013": "Ġcour", "2014": "An", "2015": "Ġteam", "2016": "ĉint", "2017": "ift", "2018": "Ġsecond", "2019": "Ġgoing", "2020": "Ġrange", "2021": "_E", "2022": "ness", "2023": "Ġfam", "2024": "Ġnil", "2025": "ĠCont", "2026": "ailable", "2027": "utes", "2028": "atab", "2029": "Ġfact", "2030": "Ġvis", "2031": "(&", "2032": "ĠAN", "2033": "Al", "2034": "title", "2035": "Ġandroid", "2036": "CE", "2037": "\\\"", "2038": "irt", "2039": "Ġwrit", "2040": "Ð½", "2041": "ĉm", "2042": "ftware", "2043": "ond", "2044": "Ġret", "2045": "osition", "2046": "Ġhome", "2047": "Ġleft", "2048": "args", "2049": "meric", "2050": "Ġdirect", "2051": "oci", "2052": "Pl", "2053": "As", "2054": "ret", "2055": "ado", "2056": "Of", "2057": "chn", "2058": "ĠGet", "2059": "ee", "2060": "ross", "2061": "();", "2062": "____", "2063": ".ph", "2064": "It", "2065": "oute", "2066": "Ġexper", "2067": "chool", "2068": "www", "2069": "},", "2070": "Ġallow", "2071": "ĠÂ", "2072": "())", "2073": "size", "2074": "ism", "2075": "ai", "2076": "tract", "2077": "ane", "2078": "context", "2079": "Ġbeg", "2080": "CH", "2081": "Ġpage", "2082": "hip", "2083": "no", "2084": "core", "2085": "sp", "2086": "Ġdifferent", "2087": "iable", "2088": "ĠMe", "2089": "_IN", "2090": "button", "2091": "ĠIs", "2092": "ervices", "2093": "Ġca", "2094": "Ġaround", "2095": "App", "2096": "ration", "2097": "Ġrece", "2098": "Ġreally", "2099": "Ġimage", "2100": "Ġtarget", "2101": "Ġdep", "2102": "opyright", "2103": "tra", "2104": "ingle", "2105": "ital", "2106": "Layout", "2107": "Ġboth", "2108": "Override", "2109": "arm", "2110": "=>", "2111": "aterial", "2112": "iled", "2113": "Ġput", "2114": "Qu", "2115": "ÑĢ", "2116": "ung", "2117": "map", "2118": "ĉĉĉĉĉĉĉĉ", "2119": "Ġlevel", "2120": "Component", "2121": "book", "2122": "creen", "2123": "_RE", "2124": "Ġconfig", "2125": "ãģ", "2126": "Or", "2127": ".data", "2128": "Ġdocument", "2129": "\",\"", "2130": "tribute", "2131": "ux", "2132": "Log", "2133": "ference", "2134": "post", "2135": "_e", "2136": "Ġlocal", "2137": "andom", "2138": "assert", "2139": "Val", "2140": "lected", "2141": "ina", "2142": "atabase", "2143": "Add", "2144": "Ġcontent", "2145": ".print", "2146": "signed", "2147": "ric", "2148": "Ġfa", "2149": "-f", "2150": "ived", "2151": "Ġquest", "2152": ".ex", "2153": "Ġfloat", "2154": "Ġdevelop", "2155": "Map", "2156": "ading", "2157": "Ġposs", "2158": "UE", "2159": "namespace", "2160": "_O", "2161": "ĉb", "2162": ".Get", "2163": ">(", "2164": "json", "2165": "etails", "2166": "Ġtoo", "2167": "Ġextends", "2168": "ĠNone", "2169": "Ġfore", "2170": "(String", "2171": "format", "2172": "Ġgreat", "2173": "inter", "2174": "cale", "2175": "Ñģ", "2176": "ron", "2177": "iving", "2178": "Ent", "2179": "ency", "2180": "xt", "2181": "oy", "2182": "Ġmonth", "2183": "Ġhapp", "2184": "Ġsuper", "2185": "bar", "2186": "default", "2187": "_de", "2188": "ords", "2189": "ln", "2190": "ĠInd", "2191": "ases", "2192": "Ġtitle", "2193": "Ġcontext", "2194": "oh", "2195": "-p", "2196": "Em", "2197": "Ġmet", "2198": "Test", "2199": "Ġlife", "2200": "_v", "2201": "ĠUS", "2202": "UI", "2203": "ocation", "2204": "md", "2205": "Ġ]", "2206": "sw", "2207": "Ġincre", "2208": "script", "2209": "ential", "2210": "ways", "2211": ".de", "2212": "Ġsrc", "2213": "Ġcatch", "2214": "ĠAmeric", "2215": "ĠĠĠĠĠĠĠĠĠĠĠĠĠĠ", "2216": "Ġpay", "2217": "plit", "2218": "âĢĶ", "2219": "Ġcoun", "2220": "obj", "2221": ".php", "2222": "Ġchange", "2223": "ething", "2224": "'re", "2225": "aster", "2226": "los", "2227": "lation", "2228": "ĠĠĊ", "2229": "Le", "2230": "Ã¤", "2231": "({", "2232": "ready", "2233": "ĠNo", "2234": "Ġposition", "2235": "Ġold", "2236": "Ġbook", "2237": "abled", "2238": "bug", "2239": "Hand", "2240": "isplay", "2241": "aving", "2242": "Ġgover", "2243": "Ġversion", "2244": "System", "2245": "nect", "2246": "response", "2247": "Style", "2248": "Up", "2249": "angu", "2250": "Ġthree", "2251": "init", "2252": "ero", "2253": "Ġlaw", "2254": "endif", "2255": "Ġbase", "2256": "email", "2257": "(l", "2258": "_V", "2259": "Ġconf", "2260": "ATE", "2261": "Ġduring", "2262": "tes", "2263": "Ġconsole", "2264": "ĠPr", "2265": "Ġspe", "2266": "ves", "2267": "path", "2268": "ialog", "2269": "dition", "2270": "_to", "2271": "ards", "2272": "Ġagainst", "2273": "etwork", "2274": "ĠPh", "2275": "_L", "2276": "cur", "2277": "imit", "2278": "With", "2279": "Ġpower", "2280": "ium", "2281": "Ġwom", "2282": "left", "2283": "ources", "2284": "atri", "2285": "ĠIm", "2286": "ĠMan", "2287": "orth", "2288": "${", "2289": "quals", "2290": "ese", "2291": "_size", "2292": "Ġiss", "2293": "otal", "2294": "-g", "2295": "ique", "2296": "rame", "2297": "Ġwidth", "2298": "erg", "2299": ")(", "2300": "ittle", "2301": "TR", "2302": "ĠThey", "2303": "ences", "2304": "rl", "2305": "ons", "2306": "Ġlabel", "2307": ".y", "2308": "-t", "2309": "update", "2310": "anel", "2311": "sc", "2312": ".to", "2313": "Ġproject", "2314": "Ã¼", "2315": "Ġelement", "2316": "Ġsuccess", "2317": "ĉĉĊ", "2318": ".sh", "2319": "ram", "2320": "ched", "2321": "Ġdate", "2322": "Ġtot", "2323": "_ST", "2324": "All", "2325": "ification", "2326": "ĉvar", "2327": "Ġtri", "2328": "chem", "2329": "my", "2330": "Ġbig", "2331": "ĠAd", "2332": "ĠAt", "2333": "ots", "2334": "num", "2335": "Act", "2336": "Ġmap", "2337": "era", "2338": "cope", "2339": ".$", "2340": ",âĢĿ", "2341": "Ġpop", "2342": "Ġfew", "2343": "Ġlen", "2344": "uid", "2345": "eters", "2346": "ules", "2347": "ÃŃ", "2348": "source", "2349": "https", "2350": "Ġdem", "2351": "Ġear", "2352": "################", "2353": "Ġmatch", "2354": "ories", "2355": "aces", "2356": "ĠCl", "2357": "Ġnode", "2358": "irc", "2359": "local", "2360": "unity", "2361": "Ġanother", "2362": "<<", "2363": "ogle", "2364": "Ġsit", "2365": "ework", "2366": "TE", "2367": ".I", "2368": "NS", "2369": "ology", "2370": "ought", "2371": ".Cont", "2372": ">>", "2373": "Ġcare", "2374": "state", "2375": "ĉprivate", "2376": "Ġeffect", "2377": "++)", "2378": "_file", "2379": "ending", "2380": "Line", "2381": "For", "2382": "ior", "2383": "ĠSc", "2384": "Ġfun", "2385": ".Size", "2386": "ĉelse", "2387": "])", "2388": "start", "2389": "vious", "2390": "Ġ},", "2391": "ours", "2392": "Ġleg", "2393": "Ġservice", "2394": "Ġsince", "2395": "iron", "2396": "Label", "2397": "Ġnon", "2398": "Ġlos", "2399": "iction", "2400": "Ġfull", "2401": "acter", "2402": "board", "2403": "gress", "2404": "Ġturn", "2405": "ither", "2406": ".size", "2407": "Ġbody", "2408": "resh", "2409": "eturn", "2410": "(_", "2411": "yles", "2412": "ormal", "2413": "pi", "2414": "Ġsomething", "2415": "!--", "2416": "uint", "2417": "Ġprodu", "2418": "Ġstand", "2419": "Ġproble", "2420": "Ġavailable", "2421": "mt", "2422": "ĠBl", "2423": "Ġ...", "2424": "Ġblock", "2425": "Input", "2426": "Ġkeep", "2427": "Count", "2428": "open", "2429": "Ġ['", "2430": "Ġthrow", "2431": "uilder", "2432": "Action", "2433": "Ġthings", "2434": "True", "2435": "Ġurl", "2436": "ĠBo", "2437": "printf", "2438": "Ġred", "2439": "js", "2440": ".create", "2441": "ĠOr", "2442": "Status", "2443": "Instance", "2444": "Ġcontrol", "2445": "Ġcome", "2446": "Ġcustom", "2447": "location", "2448": "model", "2449": "ĠčĊ", "2450": "Ġsource", "2451": "Ġeas", "2452": ".out", "2453": "oney", "2454": "Ġawait", "2455": "Ġpartic", "2456": "AP", "2457": "ublish", "2458": "odes", "2459": "_pro", "2460": "ply", "2461": "riter", "2462": "Ġprov", "2463": "Ġmill", "2464": "HT", "2465": "Ġchang", "2466": "Ġask", "2467": "ĠĠĠĠĠĠĠĠĠĠĠĠĠĠĠĠĠĠĠĠĠ", "2468": "Ġoutput", "2469": "Ġemail", "2470": ".push", "2471": "ination", "2472": "atrix", "2473": "Table", "2474": "uccess", "2475": "ĠĠĠĠĠĠĠĠĠĠĠĠĠĠĠĠĠĠĠĠĠĠĠĠĠĠĠĠĠĠĠĠĠĠĠĠĠĠĠ", "2476": "Ġdisc", "2477": "([", "2478": "Ġbusiness", "2479": "height", "2480": ".html", "2481": "ta", "2482": "field", "2483": "Ġrequired", "2484": "_R", "2485": "Ġgovern", "2486": "lex", "2487": ".,", "2488": "ĠSet", "2489": "urch", "2490": "///", "2491": "ts", "2492": "af", "2493": "Ġmight", "2494": "istory", "2495": "Str", "2496": "Ġnever", "2497": "Response", "2498": "arse", "2499": "ada", "2500": "ĠHow", "2501": "Ġ*)", "2502": "Ġ;", "2503": "Ġhard", "2504": "Ad", "2505": "Ġintern", "2506": "used", "2507": "(data", "2508": "mod", "2509": "annel", "2510": "Ġnp", "2511": "ugg", "2512": "Ġcalled", "2513": "body", "2514": "Ġcho", "2515": "(r", "2516": "_set", "2517": "ird", "2518": "Ġ>=", "2519": "Ġoptions", "2520": "ĠGener", "2521": "Ġheight", "2522": "Point", "2523": "You", "2524": "ety", "2525": "Click", "2526": "Ġsmall", "2527": "Ġide", "2528": "Ġaccess", "2529": "anguage", "2530": "Ġprotected", "2531": "Ġjob", "2532": "ĠThere", "2533": "Def", "2534": "Ġaddress", "2535": "Ġuint", "2536": "Not", "2537": "oo", "2538": "aps", "2539": "<div", "2540": "ained", "2541": "atur", "2542": "Ġsum", "2543": "-w", "2544": "ĠDate", "2545": "Ġlittle", "2546": "Ġfri", "2547": "YPE", "2548": "Ġport", "2549": "eh", "2550": "pring", "2551": "_path", "2552": "Ġstatus", "2553": "aim", "2554": "bool", "2555": "Ġappe", "2556": "Ġos", "2557": ".name", "2558": "ension", "2559": "_G", "2560": "Ġupdate", "2561": "Config", "2562": "aff", "2563": "ERR", "2564": "Ġ<=", "2565": "ately", "2566": "#if", "2567": "uction", "2568": "ĠTe", "2569": "Ġlink", "2570": "ĠUser", "2571": ".find", "2572": ".org", "2573": "me", "2574": "Ġgiven", "2575": "Out", "2576": "#endif", "2577": "Ġbetter", "2578": "Page", "2579": "Ġfeel", "2580": "enn", "2581": "ML", "2582": "Ġalready", "2583": "Ġincluding", "2584": "oogle", "2585": "ru", "2586": "ically", "2587": "prop", "2588": "lean", "2589": "outer", "2590": "Ġalways", "2591": "ording", "2592": "If", "2593": "orage", "2594": "Ġparent", "2595": "vis", "2596": "ĉĉĉĉĉĉĉ", "2597": "Ġgot", "2598": "stand", "2599": "Ġless", "2600": "/s", "2601": "ĠAss", "2602": "apt", "2603": "ired", "2604": "ĠAdd", "2605": "Ġaccount", "2606": "ploy", "2607": "Ġder", "2608": "resent", "2609": "Ġlot", "2610": "Ġvalid", "2611": "ĉd", "2612": "Ġbit", "2613": "ponents", "2614": "Ġfollowing", "2615": "_ex", "2616": "SON", "2617": "Ġsure", "2618": "ocial", "2619": "Ġprom", "2620": "erties", "2621": "header", "2622": ".pro", "2623": "Ġboolean", "2624": "Ġsearch", "2625": "ken", "2626": "Ġorig", "2627": "Ġer", "2628": "Ed", "2629": "EM", "2630": "aut", "2631": "ling", "2632": "ality", "2633": "ById", "2634": "bed", "2635": "ĉcase", "2636": "ether", "2637": "posit", "2638": "Ġinvest", "2639": "ĠOR", "2640": "Ġsays", "2641": "mission", "2642": "AME", "2643": "Ġtemp", "2644": "oad", "2645": "Ġrest", "2646": "info", "2647": "Ġinterest", "2648": "Arg", "2649": "Ġperform", "2650": "pons", "2651": "ĠView", "2652": "Ġver", "2653": "lib", "2654": "(const", "2655": "Util", "2656": "Listener", "2657": "arge", "2658": "Ġmult", "2659": "Ġdie", "2660": "Ġsite", "2661": "../../", "2662": "EL", "2663": "Ġvalues", "2664": "pen", "2665": "No", "2666": "icro", "2667": "Ġbeh", "2668": "Ġ'./", "2669": "acy", "2670": "rec", "2671": "()->", "2672": "ĉĠĠĠ", "2673": "\"))", "2674": "Content", "2675": "_W", "2676": "plement", "2677": "Ġwon", "2678": "Ġvideo", "2679": "adi", "2680": "point", "2681": "%%", "2682": "Ġgl", "2683": "erved", "2684": "viron", "2685": "IF", "2686": "uted", "2687": "ãĥ", "2688": "'m", "2689": "Ġcert", "2690": "Ġprof", "2691": "Ġcell", "2692": "ari", "2693": "Ġplayer", "2694": "ais", "2695": "Ġcost", "2696": "Ġhum", "2697": "(R", "2698": "Ġoffic", "2699": "ks", "2700": ".text", "2701": "atures", "2702": "Ġtotal", "2703": "ope", "2704": "Ġstat", "2705": "UM", "2706": "Ġload", "2707": "ights", "2708": "Ġclear", "2709": "uro", "2710": "Ġtechn", "2711": "upport", "2712": "IR", "2713": "Ġrow", "2714": "Ġseem", "2715": "Ġq", "2716": "Ġshort", "2717": "ĠNot", "2718": "ipp", "2719": "Group", "2720": "section", "2721": "max", "2722": "irl", "2723": "Ġoverride", "2724": "Ġcompany", "2725": "Ġdone", "2726": "Ġgre", "2727": ".Re", "2728": "Ġbelie", "2729": "rist", "2730": "Ġhealth", "2731": "ANT", "2732": "ĠBe", "2733": ".value", "2734": "ĠGr", "2735": "ottom", "2736": "Ġargs", "2737": "PT", "2738": "status", "2739": "func", "2740": "uments", "2741": "-h", "2742": "Number", "2743": "ĠLog", "2744": "erver", "2745": "ament", "2746": "Ġobj", "2747": "inc", "2748": "Ġchildren", "2749": "icy", "2750": "IZ", "2751": "ands", "2752": "ably", "2753": "Ġdistrib", "2754": "Ġcur", "2755": "erial", "2756": "Ġdays", "2757": "reated", "2758": "rect", "2759": "-l", "2760": "irm", "2761": "idden", "2762": "omb", "2763": "Ġinitial", "2764": ".js", "2765": "Ġâ", "2766": "Query", "2767": "Ġonline", "2768": "imal", "2769": ".con", "2770": "au", "2771": "Url", "2772": "control", "2773": "irection", "2774": "Ġinstance", "2775": "ORT", "2776": "ĠFr", "2777": "where", "2778": "Ġjavax", "2779": "Ġorgan", "2780": "apter", "2781": "Ġreason", "2782": "options", "2783": "ĠMar", "2784": "(a", "2785": "Ġwithin", "2786": "ODE", "2787": "_DE", "2788": "admin", "2789": "ended", "2790": "Ġdesign", "2791": "ĠData", "2792": "une", "2793": "ĠFile", "2794": "root", "2795": "Ġcent", "2796": "Ġarr", "2797": "_add", "2798": "len", "2799": "page", "2800": ",'", "2801": "_str", "2802": "Ġbro", "2803": "ability", "2804": "outh", "2805": "/c", "2806": "pose", "2807": "irtual", "2808": "earch", "2809": "_url", "2810": "argin", "2811": "Http", "2812": "Ġschool", "2813": "ava", "2814": "Ġconsider", "2815": ".label", "2816": "ĠArray", "2817": "web", "2818": "opt", "2819": ".println", "2820": "ulation", "2821": "Ġfunc", "2822": "PL", "2823": "Ġ\"\\", "2824": "ĠText", "2825": "actory", "2826": "(function", "2827": "null", "2828": "Ġeng", "2829": "down", "2830": "Ġinclude", "2831": "ĠEn", "2832": "ĠDr", "2833": "Ġdb", "2834": "!!", "2835": "side", "2836": "Ġinit", "2837": "quired", "2838": "ĠShe", "2839": "Column", "2840": "react", "2841": "Ġann", "2842": "Ġstop", "2843": "Ġlater", "2844": "ĠThat", "2845": "ention", "2846": "df", "2847": "UG", "2848": "ILE", "2849": "Ġclient", "2850": "raft", "2851": "ffer", "2852": "POST", "2853": "elper", "2854": "Ġlove", "2855": "quote", "2856": "oud", "2857": "Ġjson", "2858": "Ġable", "2859": "Ġmen", "2860": "AX", "2861": "ĠCopyright", "2862": "Ã¶", "2863": "avig", "2864": "req", "2865": "Client", "2866": ".Com", "2867": "erc", "2868": "ilt", "2869": "pecial", "2870": "_com", "2871": "room", "2872": ".Name", "2873": "Ġgive", "2874": "amb", "2875": "ike", "2876": "Ġcondition", "2877": "client", "2878": "ators", "2879": ":\"", "2880": "Ġcopy", "2881": "uture", "2882": "iversity", "2883": "ernal", "2884": "{{", "2885": "ĠCan", "2886": "ounc", "2887": "do", "2888": "Ġocc", "2889": "Ġappro", "2890": "thers", "2891": "ze", "2892": "Ġeither", "2893": "ĠFl", "2894": "Ġimportant", "2895": "Ġlead", "2896": "attr", "2897": "ART", "2898": "Equal", "2899": "Ġda", "2900": "etch", "2901": "entity", "2902": "Ġfamily", "2903": "adding", "2904": "Ġoption", "2905": "Ġexist", "2906": "ica", "2907": "ĠObject", "2908": "'ve", "2909": "vers", "2910": "itional", "2911": "output", "2912": "ĠTrue", "2913": "ĠOF", "2914": "_time", "2915": "Ġoffer", "2916": "HER", "2917": "egin", "2918": "\"\"", "2919": "Ġwater", "2920": "Ġche", "2921": "ĠMy", "2922": "ored", "2923": "Ġstep", "2924": "ances", "2925": "CK", "2926": "AY", "2927": "à¸", "2928": "struction", "2929": "(C", "2930": "ouch", "2931": "Stream", "2932": "active", "2933": "ama", "2934": "Entity", "2935": "product", "2936": "Ġgovernment", "2937": "ĠID", "2938": "ajor", "2939": "And", "2940": "Ġdisplay", "2941": "Ð»", "2942": "Ġtimes", "2943": "Ġfour", "2944": "Ġfar", "2945": "Ġpresent", "2946": "ĠNS", "2947": "uest", "2948": "Ġbas", "2949": "echo", "2950": "child", "2951": "ifier", "2952": "Handler", "2953": "Ġlib", "2954": "Property", "2955": "translation", "2956": "Ġroom", "2957": "Ġonce", "2958": "Ġ[]", "2959": "center", "2960": "================================", "2961": "Ġresults", "2962": "Ġcontinue", "2963": "Ġtalk", "2964": "_get", "2965": "Ġgrow", "2966": ".sw", "2967": "eb", "2968": "ĠPublic", "2969": "OP", "2970": "ecute", "2971": "ols", "2972": "Ġ**", "2973": "Ġmass", "2974": "ured", "2975": ".class", "2976": "omic", "2977": "Ġmean", "2978": "ips", "2979": "Ġaut", "2980": "Ġuntil", "2981": "Ġmarket", "2982": "Ġarea", "2983": "uit", "2984": "Ġlength", "2985": "ĠWith", "2986": "structor", "2987": "event", "2988": "\"><", "2989": "ĠSp", "2990": "IV", "2991": "Ġmus", "2992": "iff", "2993": "Ġkind", "2994": "author", "2995": "ounds", "2996": "mb", "2997": "_key", "2998": "width", "2999": "pository", "3000": "Ġlight", "3001": "uk", "3002": "Row", "3003": "ohn", "3004": "alf", "3005": "vironment", "3006": "apper", "3007": "ollections", "3008": "Ġside", "3009": "_info", "3010": "Ġexample", "3011": "imary", "3012": "Ġwr", "3013": "Ġcamp", "3014": "cribe", "3015": "\"/", "3016": "Ġmiss", "3017": "way", "3018": "Ġbased", "3019": "Ġplan", "3020": "Vis", "3021": "omain", "3022": "unk", "3023": "Ġaway", "3024": "UP", "3025": "<T", "3026": "OS", "3027": "iod", "3028": "ĠMon", "3029": "âĢĻre", "3030": "Ġlik", "3031": "Ã§", "3032": "ively", "3033": ".v", "3034": "imer", "3035": "izer", "3036": "Sub", "3037": "Ġbutton", "3038": "ĠUp", "3039": "Ġexperience", "3040": "CL", "3041": "Ġrender", "3042": "_value", "3043": "Ġnear", "3044": "URL", "3045": "alt", "3046": "Ġcountry", "3047": "ibility", "3048": "ead", "3049": "Ġauthor", "3050": "Ġspecific", "3051": "base", "3052": "(name", "3053": "ones", "3054": "ĠDo", "3055": "Ġalong", "3056": "year", "3057": "Ġexpress", "3058": ".'", "3059": "env", "3060": "Ġbegin", "3061": "Ġsoftware", "3062": "Ġimp", "3063": "Ġwin", "3064": "Ã³n", "3065": "Ġthing", "3066": "Trans", "3067": "ĠTHE", "3068": "Ġ<?", "3069": "Ġwhy", "3070": "Ġdoesn", "3071": "ij", "3072": "ging", "3073": "ĉg", "3074": "Ġsingle", "3075": "offset", "3076": "arning", "3077": "ograph", "3078": "ley", "3079": "_count", "3080": "Ġanal", "3081": "create", "3082": "/m", "3083": "ĠReg", "3084": "unch", "3085": "=$", "3086": "isk", "3087": "Ġrights", "3088": "(M", "3089": "aper", "3090": ".model", "3091": "Ġpo", "3092": "empty", "3093": "artment", "3094": "Ġant", "3095": "ĠWhen", "3096": "Ġwomen", "3097": "ĠEd", "3098": "Ġseason", "3099": "Ġdest", "3100": "Ã£", "3101": "(h", "3102": "Ġpossible", "3103": "Ġsever", "3104": "Ġbtn", "3105": "Ġdidn", "3106": "Ġsent", "3107": "Ġenc", "3108": "Ġcommand", "3109": "_x", "3110": "Ġrecent", "3111": "olution", "3112": "vector", "3113": "ĠBy", "3114": "ĠMay", "3115": "ĠAct", "3116": "»¿", "3117": "Ġmoney", "3118": "INT", "3119": "bsite", "3120": "ĉp", "3121": "ï»¿", "3122": "sl", "3123": "attern", "3124": "ĠClass", "3125": "Ġtold", "3126": "udio", "3127": "current", "3128": "Ġequ", "3129": "Ġauto", "3130": "ĠState", "3131": "da", "3132": "msg", "3133": "Ġworking", "3134": "Ġquery", "3135": "ĠBr", "3136": "Ġwindow", "3137": "auth", "3138": "only", "3139": "ĉt", "3140": "Ġleast", "3141": "agn", "3142": "Ġexpl", "3143": "itter", "3144": "aring", "3145": "Ġcolumn", "3146": "ĠGeneral", "3147": "\":\"", "3148": "eral", "3149": "rior", "3150": "Ġrecord", "3151": "IB", "3152": "EX", "3153": "Ġdat", "3154": "Ġmaking", "3155": "ued", "3156": "ĠCar", "3157": "emp", "3158": "\".", "3159": "ĠMed", "3160": "Ġclose", "3161": "Ġpercent", "3162": "Ġpast", "3163": "(g", "3164": ":(", "3165": "Ġwrite", "3166": "Ġmove", "3167": "Ġpat", "3168": "Control", "3169": ".To", "3170": "Ġvi", "3171": "inate", "3172": "'ll", "3173": "aged", "3174": "Null", "3175": "Ġspecial", "3176": "IZE", "3177": "Ġcity", "3178": "ĠEng", "3179": "ixed", "3180": "inary", "3181": "py", "3182": "Ġeff", "3183": "ario", "3184": "Ġtell", "3185": "avor", "3186": "Ġselect", "3187": "level", "3188": "imum", "3189": "oper", "3190": "Builder", "3191": "IP", "3192": "esc", "3193": "Ġfont", "3194": "ĠAm", "3195": "ished", "3196": "ills", "3197": "Inter", "3198": "OW", "3199": "Ġcourse", "3200": "Ġlate", "3201": "iddle", "3202": "Ġamount", "3203": "Ġasync", "3204": "ino", "3205": "cul", "3206": "Ġì", "3207": "andle", "3208": "_user", "3209": "Ġben", "3210": "ĠCal", "3211": "Ġ$_", "3212": "ĠRep", "3213": "Ġenough", "3214": "Token", "3215": ".user", "3216": "(j", "3217": "Sc", "3218": "Width", "3219": "now", "3220": "atform", "3221": "Ġlooking", "3222": "Ġhold", "3223": "Module", "3224": "ITY", "3225": "vo", "3226": "ison", "3227": ".Data", "3228": "yc", "3229": "Ġpot", "3230": "ĠTrump", "3231": "idual", "3232": "ides", "3233": "rt", "3234": "Ġproperty", "3235": "ĠĠĠĠĠĠĠĠĠĠĠĠĠĠĠĠĠĠĠĠĠĠĠĠĠĠĠĠĠĠĠĠĠĠĠĠĠĠĠĠĠĠĠ", "3236": "amework", "3237": "go", "3238": "Ġlow", "3239": "Ġpara", "3240": "Ġprice", "3241": "ury", "3242": "Ġtoday", "3243": "roy", "3244": "Ġ'/", "3245": "Ġpolit", "3246": "Ġ''", "3247": "ymb", "3248": "Ph", "3249": "Ġadv", "3250": "Ġattack", "3251": "ĠSte", "3252": "ROM", "3253": "ana", "3254": "Ġmeans", "3255": "Ġstory", "3256": "ids", "3257": "aken", "3258": "Ġmeet", "3259": "Ġmom", "3260": "ĠâĢĺ", "3261": "Ġ?>", "3262": "Ġden", "3263": "obile", "3264": "change", "3265": "ĠĠĠĠĠĠĠĠĠĠĠĠĊ", "3266": "ici", "3267": "na", "3268": "ĠForm", "3269": "Ġsort", "3270": "Select", "3271": "pare", "3272": "Ġthought", "3273": "_con", "3274": "Ġtask", "3275": "ocus", "3276": "ĠDE", "3277": "ĠMin", "3278": "Ġopt", "3279": "ĉbreak", "3280": "umer", "3281": "KE", "3282": "then", "3283": "Ġdet", "3284": "ĠTest", "3285": "ports", "3286": "Ġreview", "3287": "('/", "3288": "move", "3289": "Ġswitch", "3290": "ERT", "3291": "patch", "3292": "annot", "3293": "ãĤ", "3294": "Ġabove", "3295": "itive", "3296": "Ġquestion", "3297": "ĠQu", "3298": "gle", "3299": "Ġword", "3300": "Ġprovide", "3301": "ĠReturn", "3302": "Ġresearch", "3303": "Ã£o", "3304": "ustr", "3305": "Ġpublish", "3306": "chema", "3307": "}}", "3308": "ĠCON", "3309": "-in", "3310": "allback", "3311": "Ġcover", "3312": "\\\\", "3313": "color", "3314": "ĠIS", "3315": "Ġwhether", "3316": "imate", "3317": "isc", "3318": "Bar", "3319": "Ġdiv", "3320": "Be", "3321": "ourn", "3322": "Ġhaving", "3323": "lem", "3324": "player", "3325": "abs", "3326": "amera", "3327": "ney", "3328": "Ġexc", "3329": "gether", "3330": "plied", "3331": "ao", "3332": "[$", "3333": "Ġ++", "3334": "ipe", "3335": "show", "3336": "/d", "3337": "[:", "3338": "agement", "3339": "lev", "3340": "_ID", "3341": "rary", "3342": "ades", "3343": "_se", "3344": "ause", "3345": "Ġemploy", "3346": "Ġfre", "3347": "Ġ'@", "3348": "Ġcomplet", "3349": "Ġlarge", "3350": "ral", "3351": "\\x", "3352": "Ġfac", "3353": "<String", "3354": "Ġcreated", "3355": "uper", "3356": ".state", "3357": "Ġhost", "3358": "eneric", "3359": "/b", "3360": "(!", "3361": "while", "3362": "ias", "3363": "BUG", "3364": "Ġrole", "3365": "Reg", "3366": "ĠColor", "3367": "Start", "3368": "Ġporn", "3369": "top", "3370": "Ġweb", "3371": "Ġdev", "3372": "Ġdeal", "3373": "Integer", "3374": "position", "3375": ".on", "3376": "Ġ(\"", "3377": "Ġproblem", "3378": "sv", "3379": "Ġpress", "3380": "ABLE", "3381": "ATION", "3382": "ĠSee", "3383": "anch", "3384": "Ġthough", "3385": "leep", "3386": "Ġ<!--", "3387": "Ġpoints", "3388": "ĠĠĠĠĠĠĠĠĠĠĠĠĠĠĠĠĠĠĠĠĠĠĠĠĠ", "3389": ".J", "3390": "Ġ::", "3391": "ptr", "3392": "DB", "3393": ".png", "3394": "node", "3395": "soft", "3396": "pond", "3397": "Ġever", "3398": "----------------------------------------------------------------", "3399": "Menu", "3400": "('#", "3401": "Ġservices", "3402": "pg", "3403": "params", "3404": "Ġactually", "3405": "Ġ\"/", "3406": "Empty", "3407": "Method", "3408": "Ġident", "3409": "unic", "3410": "Ġmillion", "3411": "Ġaff", "3412": "style", "3413": "Ġconc", "3414": "ios", "3415": "ignment", "3416": "ULT", "3417": "Pr", "3418": "Ġunderstand", "3419": "uary", "3420": "Ġhappen", "3421": "Ġserver", "3422": "ĠCo", "3423": "SC", "3424": "Ġles", "3425": "Ġfiles", "3426": "Grid", "3427": "sql", "3428": "Ġoften", "3429": "Ġinfo", "3430": "_tr", "3431": "src", "3432": "ony", "3433": "Ġspace", "3434": "umb", "3435": "Ġpassword", "3436": "Ġstore", "3437": "ĠWhat", "3438": "ged", "3439": "ĠFalse", "3440": "Us", "3441": "swer", "3442": "_index", "3443": "Ġformat", "3444": "most", "3445": "sm", "3446": "New", "3447": "Ġdetails", "3448": "Ġprob", "3449": "ĠAND", "3450": "ilar", "3451": "Ġ${", "3452": "rypt", "3453": ".Collections", "3454": "$this", "3455": "ĠFree", "3456": "_of", "3457": "(false", "3458": "dated", "3459": "Ġ>>", "3460": "Ġface", "3461": "CTION", "3462": "Ġsave", "3463": "Ġtyp", "3464": "dev", "3465": "(\"#", "3466": "AGE", "3467": "container", "3468": "edit", "3469": "QL", "3470": "Ġitems", "3471": "Ġsocial", "3472": "ien", "3473": "ĠReact", "3474": "Ġmar", "3475": "Ġredu", "3476": "ĠRE", "3477": ".put", "3478": "Ġmajor", "3479": "Cell", "3480": "next", "3481": "Ġexpected", "3482": "Ġyet", "3483": "Ġindiv", "3484": "tributes", "3485": "atis", "3486": "amed", "3487": "Ġfood", "3488": "Source", "3489": "(string", "3490": "ites", "3491": "dr", "3492": "Ġmembers", "3493": "Ġcomb", "3494": "items", "3495": "ĠPer", "3496": "TH", "3497": "=True", "3498": "Ġbar", "3499": "_SE", "3500": "comm", "3501": "(w", "3502": "Ġsend", "3503": "Ġinc", "3504": "unsigned", "3505": "FA", "3506": "Ġparams", "3507": "apping", "3508": "ros", "3509": "ugin", "3510": "fa", "3511": "Ġconnection", "3512": "Ġbecome", "3513": "Mode", "3514": "Ġev", "3515": "Ġdiff", "3516": "ĠUnited", "3517": "Height", "3518": "fully", "3519": "images", "3520": "Ġmakes", "3521": "Ġglobal", "3522": "Ġcontact", "3523": "Ġabs", "3524": "float", "3525": "Ġexcept", "3526": "ĠPol", "3527": "Child", "3528": "typ", "3529": "Ġcertain", "3530": "iÃ³n", "3531": "OUT", "3532": "Ġimpro", "3533": "iles", "3534": "ĠPart", "3535": "values", "3536": "oss", "3537": "/**", "3538": "ilit", "3539": "ĠEvent", "3540": "curity", "3541": "ster", "3542": "Ġcharacter", "3543": "Ġnews", "3544": "Ġ\",", "3545": "Ġdevice", "3546": "cel", "3547": "login", "3548": "heet", "3549": "Default", "3550": "@\"", "3551": "ĉĠ", "3552": "click", "3553": "(value", "3554": "ĠAb", "3555": "Ġprevious", "3556": "ERROR", "3557": "ocal", "3558": "Ġmaterial", "3559": "Ġbelow", "3560": "ĠChrist", "3561": "Ġmedia", "3562": "cover", "3563": "ĠUI", "3564": "Ġfail", "3565": "Ġblack", "3566": "Ġcomponent", "3567": "ĠAmerican", "3568": "Ġadded", "3569": "Ġbuy", "3570": "stit", "3571": "Ġcame", "3572": "Ġdelete", "3573": "property", "3574": "oding", "3575": "Ġcard", "3576": "rops", "3577": "Ġhttps", "3578": "Ġroot", "3579": "Ġhandle", "3580": "CC", "3581": "Back", "3582": "emplate", "3583": "Ġgetting", "3584": "_by", "3585": "mail", "3586": "_sh", "3587": ".assert", "3588": "ĠDec", "3589": "(true", "3590": "Ġcomput", "3591": "Ġclaim", "3592": "'=>", "3593": "ĠSub", "3594": "Ġair", "3595": "ops", "3596": "nav", "3597": "ements", "3598": "(id", "3599": "Ġenter", "3600": "anged", "3601": "End", "3602": "Ġlocation", "3603": "Ġnight", "3604": "Ġdoing", "3605": "ĠRed", "3606": "lin", "3607": "vider", "3608": "Ġpick", "3609": "Ġwatch", "3610": "essages", "3611": "Ġhuman", "3612": "Ġdam", "3613": "pend", "3614": "dir", "3615": "Ġtax", "3616": "Ġgirl", "3617": "reet", "3618": "Ġbox", "3619": "Ġstrong", "3620": "(v", "3621": "rel", "3622": "Ġinterface", "3623": "Ġmsg", "3624": "fect", "3625": "_at", "3626": "Ġhouse", "3627": "Ġtrack", "3628": "je", "3629": "ĠJohn", "3630": "istr", "3631": "(S", "3632": "ube", "3633": "Ġce", "3634": "itted", "3635": "VER", "3636": "*)", "3637": "parent", "3638": "Ġapplication", "3639": "any", "3640": ".swing", "3641": "Ġpack", "3642": "\\u", "3643": "Ġpract", "3644": "Ġsection", "3645": "ctx", "3646": "Ġunsigned", "3647": ".Point", "3648": "ĠOne", "3649": "Ä±", "3650": "iple", "3651": "aid", "3652": "Ñĥ", "3653": "Vector", "3654": "byte", "3655": "Ġwait", "3656": "ĠÃł", "3657": "Ã¥", "3658": "Ġtogether", "3659": "Ġthrows", "3660": "FO", "3661": "'))", "3662": "host", "3663": "ising", "3664": ".view", "3665": "Ġterms", "3666": "framework", "3667": "-r", "3668": "Ġapply", "3669": "Ġsession", "3670": "Options", "3671": "uggest", "3672": "Ġothers", "3673": "witter", "3674": "Ġfund", "3675": "Init", "3676": "__(", "3677": "ensor", "3678": "GET", "3679": "Ġseveral", "3680": "ii", "3681": "[j", "3682": "IO", "3683": "Ġtemplate", "3684": "Position", "3685": "Ġecon", "3686": "achine", "3687": "Ġil", "3688": ".spring", "3689": "main", "3690": "elt", "3691": "iment", "3692": "Rec", "3693": "mm", "3694": "ĠUniversity", "3695": "ursor", "3696": "ĠĠĠĠĠĠĠĠĠĠĠĠĠĠĠĠĠĠĠĠ", "3697": "GL", "3698": "icture", "3699": "ithub", "3700": "cer", "3701": "cast", "3702": "From", "3703": "ales", "3704": "Ġsubject", "3705": "password", "3706": "ny", "3707": "Ġesc", "3708": ".write", "3709": "ï¼Į", "3710": "What", "3711": ".H", "3712": "Ġhistory", "3713": "ĠFe", "3714": "Ġindividual", "3715": "unit", "3716": "Ġ-->", "3717": "Ġdu", "3718": "IST", "3719": "Ġusers", "3720": "fs", "3721": "false", "3722": "unt", "3723": "Title", "3724": "Ġmot", "3725": "Ġfuture", "3726": "ached", "3727": "Ġstarted", "3728": "Ġmode", "3729": "Ġ'<", "3730": "_array", "3731": "Ġax", "3732": "ires", "3733": "There", "3734": "ught", "3735": "tml", "3736": "posed", "3737": "icult", "3738": "Ġtook", "3739": "Ġgames", "3740": "Ġ}}", "3741": "Ġproducts", "3742": "Is", "3743": "Ġbad", "3744": "ĠDes", "3745": ".path", "3746": "ĠPost", "3747": "avel", "3748": "(:", "3749": "Ġneeds", "3750": "Ġknown", "3751": "Fl", "3752": "Ġexec", "3753": "Ġseen", "3754": "ume", "3755": "Ġborder", "3756": "Ġlive", "3757": "temp", "3758": "Per", "3759": "Ġvariable", "3760": "iet", "3761": "ĠDef", "3762": "Ġge", "3763": "eme", "3764": "_back", "3765": "first", "3766": "Ġprovided", "3767": "////////////////////////////////", "3768": "Ġfilename", "3769": "Ġhope", "3770": "uly", "3771": "auto", "3772": "find", "3773": "_string", "3774": "btn", "3775": "itude", "3776": "Attribute", "3777": "Ġyoung", "3778": ".txt", "3779": "Ġwebsite", "3780": "ĠProp", "3781": "Ġey", "3782": "ional", "3783": "ARR", "3784": "ictionary", "3785": "urther", "3786": ".</", "3787": "ALL", "3788": "Ġstudy", "3789": "ili", "3790": "Ġnetwork", "3791": "yl", "3792": "istance", "3793": "OK", "3794": "NU", "3795": "rest", "3796": "ĠST", "3797": "icrosoft", "3798": "Ġlimit", "3799": "Ġcut", "3800": "Ġcou", "3801": "ogn", "3802": "Ġsizeof", "3803": "ival", "3804": "Ġwent", "3805": ".z", "3806": "Link", "3807": "Ġfire", "3808": "Ġacross", "3809": "Ġcommunity", "3810": "region", "3811": "NE", "3812": "Ref", "3813": "Ġofficial", "3814": "Ġvisit", "3815": "olve", "3816": "Ġreceived", "3817": "Ġtoken", "3818": "Ġmonths", "3819": "Ġanim", "3820": "Ġparticular", "3821": "styles", "3822": "ico", "3823": "Ġess", "3824": ".Control", "3825": "ĠÃ©", "3826": "ball", "3827": "Ġlearn", "3828": "inding", "3829": "Var", "3830": "Ġdecl", "3831": "(err", "3832": "LECT", "3833": "One", "3834": "pha", "3835": "Ġ~", "3836": "fort", "3837": "asure", "3838": "Ġmind", "3839": "ĠEnd", "3840": "Check", "3841": "Ġquick", "3842": "\"),", "3843": "AND", "3844": "utions", "3845": "Base", "3846": "________", "3847": "Ġcomment", "3848": "INE", "3849": "âĢĻve", "3850": "But", "3851": "ĠEl", "3852": "ĠUs", "3853": "Ġadmin", "3854": "mark", "3855": "ĠName", "3856": "ĠType", "3857": "amic", "3858": "pc", "3859": "loor", "3860": "FT", "3861": "Ġopp", "3862": "cket", "3863": ")->", "3864": "tx", "3865": "Ġpur", "3866": "uel", "3867": "ymbol", "3868": "uation", "3869": "anger", "3870": "Ġbackground", "3871": "ecess", "3872": "efined", "3873": "........", "3874": "Ġdescription", "3875": "Ġrepresent", "3876": "pression", "3877": "rowser", "3878": "Ġseries", "3879": "wards", "3880": "($_", "3881": "aise", "3882": "Ġhot", "3883": "acity", "3884": "ries", "3885": "actions", "3886": "Create", "3887": "adio", "3888": "amples", "3889": "Ġoriginal", "3890": "ensive", "3891": "font", "3892": "stream", "3893": "ï»¿using", "3894": ".springframework", "3895": "server", "3896": "Ġbill", "3897": "ACK", "3898": "ilename", "3899": "Ġframe", "3900": "Edit", "3901": "adius", "3902": "Ġdraw", "3903": "anks", "3904": "Ġdeter", "3905": "Ġcomes", "3906": "_int", "3907": "Ġforeach", "3908": "angle", "3909": "Ġelect", "3910": "pected", "3911": "Header", "3912": "istration", "3913": "False", "3914": "ĠGame", "3915": "Ġfilter", "3916": "Activity", "3917": "Ġlarg", "3918": "inition", "3919": "Ġ\"<", "3920": "ised", "3921": "Ġremove", "3922": "ĠTrans", "3923": "met", "3924": "see", "3925": "Format", "3926": "Command", "3927": "ĠEX", "3928": "None", "3929": "Ġfront", "3930": "ASE", "3931": "ĠRec", "3932": "oundation", "3933": "Ġvo", "3934": "=\\\"", "3935": "(*", "3936": "Change", "3937": ".Write", "3938": "group", "3939": "ients", "3940": "uy", "3941": "****************************************************************", "3942": "Ġdig", "3943": "hr", "3944": "(-", "3945": "Ġgen", "3946": "number", "3947": "vec", "3948": "urope", "3949": "entry", "3950": "LL", "3951": "Ġste", "3952": "Valid", "3953": "'],", "3954": "_param", "3955": "Ġselected", "3956": "Ġaccording", "3957": "ĠDis", "3958": "Ġutil", "3959": "Buffer", "3960": "_error", "3961": "Ġassoci", "3962": "_SIZE", "3963": "Ġwor", "3964": "Ġprintf", "3965": "rag", "3966": "Âł", "3967": "DD", "3968": "ĠVal", "3969": "Ġactiv", "3970": "Eng", "3971": "etime", "3972": "Ġvirtual", "3973": "aign", "3974": "aur", "3975": "ĠPres", "3976": "ĠException", "3977": "Ġanything", "3978": "ĠOff", "3979": "Ġhours", "3980": "Ġwar", "3981": "Args", "3982": "aging", "3983": "Ġmodels", "3984": "ĠTime", "3985": "Ob", "3986": "ams", "3987": "joy", "3988": "Ġearly", "3989": ".read", "3990": "Ġcenter", "3991": "ĠInitial", "3992": "Ġlanguage", "3993": "length", "3994": "xy", "3995": "Ġsn", "3996": "Ġinf", "3997": "Post", "3998": "Ġago", "3999": "Ġeasy", "4000": "_code", "4001": "ĠANY", "4002": "_ch", "4003": "Ġdownload", "4004": "(T", "4005": "aved", "4006": "âĢĵ", "4007": "Ġstudents", "4008": "Ġfig", "4009": "light", "4010": "xx", "4011": "Ġbuffer", "4012": "ĠDep", "4013": "ĠMath", "4014": "ITH", "4015": "Ġvari", "4016": "Ġdue", "4017": "Factory", "4018": "Ġpor", "4019": "Ġep", "4020": "otype", "4021": "Ġcannot", "4022": "Ġwhite", "4023": "<int", "4024": "tern", "4025": "Ġregister", "4026": "Ġpred", "4027": "clus", "4028": "_date", "4029": "Ġ/**", "4030": "Ġauth", "4031": "Ġperiod", "4032": "nown", "4033": "Ġvot", "4034": "Ġscreen", "4035": "'d", "4036": "Types", "4037": "Ġtmp", "4038": "ural", "4039": "Ġbenef", "4040": "_y", "4041": "Ġnet", "4042": "ĠStates", "4043": "']['", "4044": "ĠNe", "4045": "ĠNOT", "4046": "Ġneg", "4047": "Ġcommon", "4048": "scope", "4049": "Ġcred", "4050": "ges", "4051": "_TYPE", "4052": "Ġsuggest", "4053": "oom", "4054": "Ġaccept", "4055": "Ġrandom", "4056": "erm", "4057": "ĠVector", "4058": "with", "4059": "TER", "4060": "(str", "4061": "Ġrespons", "4062": "Ġhit", "4063": ".Set", "4064": "grid", "4065": "ria", "4066": "Ġclick", "4067": "undle", "4068": "Case", "4069": "insert", "4070": "Utils", "4071": "Ġ\"\"\"", "4072": "Ġimplement", "4073": "atal", "4074": "tempt", "4075": "template", "4076": "ocr", "4077": "returns", "4078": "Ġplayers", "4079": "users", "4080": "edef", "4081": "ĠThese", "4082": "Ġamong", "4083": "Ġdeb", "4084": "ha", "4085": ".getElement", "4086": "Ġcirc", "4087": "Ġanswer", "4088": "Ġwalk", "4089": "Ġtreat", "4090": "ĠGe", "4091": "ĠCreate", "4092": "Ġage", "4093": "Ġreq", "4094": "OST", "4095": "angular", "4096": "Ñı", "4097": "Ġfive", "4098": "Ġdistributed", "4099": "Ġfriend", "4100": "TP", "4101": "Ġclean", "4102": "ows", "4103": ".Controls", "4104": "dis", "4105": "Ġwords", "4106": ".io", "4107": "zy", "4108": "Ġheader", "4109": "ĠCheck", "4110": "âĢĻm", "4111": "just", "4112": "holder", "4113": "=\"<?", "4114": "ĠGNU", "4115": "ĠCol", "4116": "imest", "4117": "entic", "4118": "Ġtre", "4119": "last", "4120": "la", "4121": "ĠYork", "4122": "Lo", "4123": "Ġdiscuss", "4124": "ĠGod", "4125": "Ġissue", "4126": "rew", "4127": "Window", "4128": "Ġland", "4129": "Ġstream", "4130": "ĠPar", "4131": "Ġquality", "4132": "Par", "4133": "_num", "4134": "Ġsal", "4135": "elves", "4136": "ORD", "4137": "(user", "4138": "Ġworks", "4139": "Ġhalf", "4140": "enses", "4141": "vas", "4142": "Ġpolice", "4143": "(\"/", "4144": "ua", "4145": "Ġsimple", "4146": "Address", "4147": "Ġempty", "4148": "esh", "4149": "Update", "4150": "ĠCreated", "4151": "('.", "4152": "ĠĠĠĠĠĠĠĠĠĠĠĠĠĠĠĠĠĠ", "4153": "Ġagre", "4154": "ĠFROM", "4155": "Ġcook", "4156": "Ġeverything", "4157": "ilities", "4158": ".status", "4159": "Ġrelations", "4160": "extern", "4161": "Ġnothing", "4162": "Ġrunning", "4163": "ĉvoid", "4164": "RI", "4165": "_a", "4166": "_CON", "4167": "por", "4168": ".sub", "4169": "require", "4170": "ĠCity", "4171": "ĠWest", "4172": "Ġmor", "4173": "store", "4174": "Equals", "4175": "oder", "4176": "Ġna", "4177": "Ġ[[", "4178": "Ġ('", "4179": "ĠDon", "4180": "ERS", "4181": "/p", "4182": ".json", "4183": "abor", "4184": "Ġsomeone", "4185": "_text", "4186": ".css", "4187": ".Tab", "4188": "ĠSome", "4189": "ato", "4190": "double", "4191": "Ġshare", "4192": "(void", "4193": "_dir", "4194": "Ġur", "4195": "Stack", "4196": "ĠWorld", "4197": ".X", "4198": "stract", "4199": "How", "4200": ".Generic", "4201": "icles", "4202": "Ġentry", "4203": "Ġchanges", "4204": "Ġpersonal", "4205": "(A", "4206": "Ġoffset", "4207": "_ptr", "4208": "Ġpie", "4209": "ĠJan", "4210": "-group", "4211": "module", "4212": "Items", "4213": "ĠHowever", "4214": "verage", "4215": ".Font", "4216": "Ġevents", "4217": ".min", "4218": "Ġinvol", "4219": "za", "4220": "Ġwhole", "4221": "Ġneeded", "4222": "Ġlikely", "4223": "rief", "4224": "ORM", "4225": "version", "4226": "Ġfight", "4227": "Ġein", "4228": "Frame", "4229": "gen", "4230": "ĠOut", "4231": "avigation", "4232": "Length", "4233": "illed", "4234": "quence", "4235": "Ġ!==", "4236": "ĠSoftware", "4237": "Ġwriting", "4238": "Ġrate", "4239": "Panel", "4240": "inner", "4241": "Ġ[\"", "4242": "Ġtw", "4243": "cd", "4244": "_state", "4245": "ĠSm", "4246": "ĠMark", "4247": "prot", "4248": "ĠMr", "4249": "method", "4250": "ustomer", "4251": "Icon", "4252": "Ġcorrect", "4253": "(object", "4254": "ĠMore", "4255": "Ġfall", "4256": "Ġvol", "4257": "Ġdevelopment", "4258": "ently", "4259": "Ġsi", "4260": "medi", "4261": "ving", "4262": "PP", "4263": "aker", "4264": "Ġindu", "4265": "Ġelif", "4266": "Ġpret", "4267": "Ġbelieve", "4268": "ns", "4269": "omet", "4270": "ĠIntern", "4271": "Rect", "4272": "So", "4273": ".error", "4274": "Read", "4275": "Ġfeatures", "4276": "Ġminutes", "4277": "---", "4278": "asing", "4279": "cret", "4280": ".annot", "4281": "Ġcollection", "4282": "'.", "4283": "Ġsimilar", "4284": "Ġtaken", "4285": "(\"%", "4286": "Order", "4287": "-md", "4288": "ĠTH", "4289": "aced", "4290": "Ġisn", "4291": "/j", "4292": "Ġson", "4293": "graph", "4294": "ĠInteger", "4295": "Ġnecess", "4296": "reen", "4297": "Ġum", "4298": "Ġ\\<", "4299": "Ġmoment", "4300": "Ġbring", "4301": "Ġindic", "4302": "ysis", "4303": "Level", "4304": "verse", "4305": "urrenc", "4306": "_test", "4307": "Ġentire", "4308": "Down", "4309": "(result", "4310": "ĠRead", "4311": "Ã¨", "4312": "Mod", "4313": "Ġtrying", "4314": "Ġmember", "4315": "ĠCor", "4316": "ODO", "4317": "-control", "4318": "untime", "4319": "ĠSim", "4320": "Dialog", "4321": "plot", "4322": "_on", "4323": "Ġphys", "4324": "}/", "4325": "Ġnamespace", "4326": "ĉčĊ", "4327": "acc", "4328": "Player", "4329": "ARE", "4330": "Ġfoot", "4331": "Ġboard", "4332": "part", "4333": "Ġsus", "4334": "wise", "4335": "ĠMc", "4336": "Ġpush", "4337": "ATA", "4338": "Ġplease", "4339": "ried", "4340": "weet", "4341": "bit", "4342": "ided", "4343": "VE", "4344": "ĠSw", "4345": "UB", "4346": "Ġtypes", "4347": "edia", "4348": "Ġclos", "4349": "acebook", "4350": "When", "4351": "Ġedit", "4352": "igger", "4353": "Ġenerg", "4354": "Container", "4355": "Ġphot", "4356": "ĠCount", "4357": "ĠEurope", "4358": ".Is", "4359": "ĠRuss", "4360": "peed", "4361": "ĠStr", "4362": "Ġpy", "4363": "Ġcult", "4364": "Ġdefined", "4365": "ccount", "4366": "Ġobt", "4367": ".Location", "4368": "Ġthread", "4369": "ille", "4370": "Ġinstead", "4371": "strong", "4372": "ĠSec", "4373": "URE", "4374": "Ġidea", "4375": ".se", "4376": "emy", "4377": "selected", "4378": "Connection", "4379": "acing", "4380": "thread", "4381": ".next", "4382": "Ġcoll", "4383": "Ġfilm", "4384": "istic", "4385": "Ġcompet", "4386": "Ġconn", "4387": "though", "4388": "Ġcompan", "4389": "ocket", "4390": "Ġteach", "4391": "=(", "4392": "Ġphone", "4393": "Ġactive", "4394": "delete", "4395": "tries", "4396": "Ġmo", "4397": "Ġdeath", "4398": "ocol", "4399": "Widget", "4400": "Ġarticle", "4401": "rodu", "4402": "andid", "4403": "Ñĭ", "4404": "ĠCr", "4405": "ka", "4406": "():", "4407": "lood", "4408": "ĉĉĉĊ", "4409": "Ġalmost", "4410": "Ġsell", "4411": "ervlet", "4412": "rip", "4413": "Unit", "4414": "Ġapplic", "4415": "Ġconnect", "4416": "Ġfeature", "4417": "Ġvia", "4418": "'),", "4419": "Ġlim", "4420": "ĠĠĠĠĠĠĠĠĠĠĠĠĠĠĠĠĠĠĠĠĠĠĠĠĠĠĠĠĠĠĠĠĠĠĠĠĠĠĠĠĠĠĠĠĠĠĠ", "4421": "ĠGu", "4422": "Engine", "4423": "Ġens", "4424": "Ġenvironment", "4425": "block", "4426": "HERE", "4427": "NULL", "4428": "gy", "4429": "tag", "4430": ")).", "4431": "exp", "4432": "Ġcompl", "4433": "Ġinstall", "4434": "Ġcomplete", "4435": "queue", "4436": "atural", "4437": "Ġgeneral", "4438": "thon", "4439": "Ġasked", "4440": "ores", "4441": "(res", "4442": "Ġreserved", "4443": "SP", "4444": "ĠâĢ¦", "4445": "ÅĤ", "4446": "Ġsignific", "4447": "Off", "4448": "ĠĠĠĠĠĠĠĠĠĠĠĠĠĠĠĠĠĠĠĠĠĠĠĠĠĠĠĠĠ", "4449": "ĠAg", "4450": "ĠJust", "4451": "ĠError", "4452": "Ġinfl", "4453": "adata", "4454": "Ġicon", "4455": "asks", "4456": "''", "4457": "_LO", "4458": "?.", "4459": "account", "4460": "Ġ(*", "4461": "rap", "4462": "_var", "4463": "ĠFOR", "4464": "Ġparty", "4465": "ĠYour", "4466": "cat", "4467": "stry", "4468": ".new", "4469": "boot", "4470": "ĠNov", "4471": "Ġvector", "4472": "Ġnormal", "4473": "Ġfurther", "4474": "Repository", "4475": "Ġdatabase", "4476": "attle", "4477": "Ġmusic", "4478": "Ġspeed", "4479": "Ġdoc", "4480": "process", "4481": "IGHT", "4482": ".parse", "4483": "Ġtaking", "4484": "Ġviol", "4485": "ceed", "4486": "ĠAfter", "4487": "Ġforward", "4488": "Ġcrit", "4489": "rot", "4490": "Ġfailed", "4491": "efore", "4492": "Ġconcern", "4493": "oe", "4494": "ba", "4495": "Ġsender", "4496": "Ġterm", "4497": "has", "4498": "=\"#", "4499": "Ġpotential", "4500": "Num", "4501": "Ġpublished", "4502": ".close", "4503": "ĠImage", "4504": "straint", "4505": "UD", "4506": "ĠOb", "4507": "Ġprobably", "4508": "lim", "4509": "olume", "4510": "Ġconsum", "4511": "ague", "4512": "ensions", "4513": "Ġinvestig", "4514": "-year", "4515": "');", "4516": "-sm", "4517": "Ġenjoy", "4518": "orig", "4519": "ering", "4520": "cp", "4521": "leased", "4522": "plements", "4523": "Ġreturns", "4524": "pat", "4525": "BO", "4526": "ĠHouse", "4527": ".Label", "4528": "Ġweight", "4529": "ighb", "4530": "Ġconditions", "4531": "Ġexception", "4532": "description", "4533": "Ġtrad", "4534": "-to", "4535": "Ġ{}", "4536": "Ġmodule", "4537": "END", "4538": ".ap", "4539": ".props", "4540": "Ġconstructor", "4541": "aves", "4542": "Ġfavor", "4543": "ĠNow", "4544": ";i", "4545": "ĠMain", "4546": "_k", "4547": "eries", "4548": "âĢĻll", "4549": "transform", "4550": "imestamp", "4551": "Pre", "4552": "Ġmer", "4553": ".res", "4554": "stant", "4555": "Location", "4556": "_NAME", "4557": "Ġloss", "4558": "ĠĊĊ", "4559": "net", "4560": "Ġengine", "4561": "Block", "4562": "Ġissues", "4563": "Ġparse", "4564": "ĠBar", "4565": "Ġstay", "4566": "ĠJSON", "4567": "Ġdom", "4568": "airs", "4569": "wner", "4570": "Ġlower", "4571": "ĠDem", "4572": "ufact", "4573": "Ġps", "4574": "Ġperfect", "4575": "RL", "4576": "Ġeduc", "4577": "ls", "4578": "emory", "4579": "ARRANT", "4580": "uge", "4581": "Ġexact", "4582": ".key", "4583": "alled", "4584": "ech", "4585": "ief", "4586": "\\/", "4587": "oke", "4588": "Ġformer", "4589": "alloc", "4590": "Ġsix", "4591": "ida", "4592": "Ġmargin", "4593": "Ġheart", "4594": "ald", "4595": "pack", "4596": ".getElementById", "4597": "ĠWARRANT", "4598": "Ġrather", "4599": "Ġbuilding", "4600": "erman", "4601": "lice", "4602": "Ġquestions", "4603": "izes", "4604": "lege", "4605": "irectory", "4606": "Ġje", "4607": "Ġcas", "4608": "props", "4609": "utf", "4610": "Ġsecurity", "4611": "Ġhowever", "4612": "weight", "4613": "Ġinside", "4614": "Ġpresident", "4615": "Char", "4616": "ĠWITH", "4617": ".map", "4618": "Ġgraph", "4619": "Ġtag", "4620": "_status", "4621": "Ġattempt", "4622": "opp", "4623": "uses", "4624": "ĉconst", "4625": "Ġround", "4626": ",$", "4627": "Ġfriends", "4628": "Email", "4629": "?>", "4630": "Resource", "4631": "KEY", "4632": "osp", "4633": ".query", "4634": "ĠNorth", "4635": "ables", "4636": "istrib", "4637": "_class", "4638": "ello", "4639": "That", "4640": "Ðº", "4641": "pecially", "4642": "ĠPresident", "4643": "Ġcampaign", "4644": "Ġalt", "4645": "area", "4646": "Ġchall", "4647": "Ġopport", "4648": ".Con", "4649": "Ġenergy", "4650": "like", "4651": ".string", "4652": "ington", "4653": ")*", "4654": "yy", "4655": "Ġprofession", "4656": "irth", "4657": "Ġseg", "4658": "Ġhor", "4659": "iers", "4660": "can", "4661": "Ġbehind", "4662": "Product", "4663": "fg", "4664": "ĠSk", "4665": ".jpg", "4666": "?:", "4667": "Ġcallback", "4668": "ĠHttp", "4669": "ÑĮ", "4670": "long", "4671": "MS", "4672": "ATH", "4673": "Ġraise", "4674": "Ġwanted", "4675": "rown", "4676": "utor", "4677": "lt", "4678": "]=", "4679": "eline", "4680": "MA", "4681": "Ġsepar", "4682": "cs", "4683": "semb", "4684": "Dis", "4685": "bserv", "4686": "ĠWill", "4687": "Ġpolicy", "4688": "Ġthird", "4689": "phone", "4690": "Ġbed", "4691": "/g", "4692": ".__", "4693": "ĠInc", "4694": "izing", "4695": ".remove", "4696": "instance", "4697": ".type", "4698": "Ġserv", "4699": "Each", "4700": "Ġhar", "4701": "ĠMessage", "4702": "(key", "4703": "SELECT", "4704": "Pos", "4705": "Ġrecomm", "4706": "Ġtraining", "4707": "ĠEnt", "4708": "ĠChar", "4709": "icht", "4710": "(file", "4711": "Ġprior", "4712": "Game", "4713": "Ġexit", "4714": "Params", "4715": ".core", "4716": "PC", "4717": "nes", "4718": "anced", "4719": "(request", "4720": "Password", "4721": "Ġmag", "4722": "Ġrelease", "4723": "Ġshall", "4724": "udent", "4725": "ĠSouth", "4726": "ando", "4727": ":'", "4728": ".TabIndex", "4729": "sk", "4730": "anner", "4731": "isset", "4732": "Ġoutside", "4733": "ledge", "4734": "ĠRob", "4735": "Ġimm", "4736": "ĠWeb", "4737": "Des", "4738": "BC", "4739": "ancial", "4740": "Route", "4741": "Dec", "4742": "ferences", "4743": "Ġpurch", "4744": "ĠModel", "4745": "ctor", "4746": "gn", "4747": "_start", "4748": "_un", "4749": ".*", "4750": "ises", "4751": "Ġground", "4752": "Ġunique", "4753": "Ġbeaut", "4754": "{\"", "4755": "Ġpour", "4756": "ĠOct", "4757": "Ġtree", "4758": "sets", "4759": "_res", "4760": "')->", "4761": "_reg", "4762": "(\"\\", "4763": "Ġbyte", "4764": "Bl", "4765": "Ġdating", "4766": "Ġmatter", "4767": "ĠRem", "4768": "Ġ'../", "4769": "ĠAug", "4770": "ĠLa", "4771": "Ġ$(", "4772": "ournal", "4773": "iam", "4774": "Ġshows", "4775": "write", "4776": "Ġball", "4777": "Ġsimply", "4778": "Ġfast", "4779": "Ġmemory", "4780": "ASS", "4781": "ĠOf", "4782": "oved", "4783": "ante", "4784": "aul", "4785": "istry", "4786": "Ġfit", "4787": "<string", "4788": "Ġpolitical", "4789": "ancel", "4790": "_.", "4791": "card", "4792": ".current", "4793": "och", "4794": "_image", "4795": "\\t", "4796": "(L", "4797": "Ġindustry", "4798": "coming", "4799": "Ġextra", "4800": "Ġreported", "4801": ".start", "4802": "Ġresources", "4803": "Ġimg", "4804": "flow", "4805": "_EX", "4806": "(null", "4807": "ĠPre", "4808": "Ġwrong", "4809": "interface", "4810": "Parameter", "4811": "ners", "4812": "á»", "4813": "ture", "4814": "ersist", "4815": "ountry", "4816": "Ġseems", "4817": "alance", "4818": "dest", "4819": "ĉString", "4820": "Ġmaint", "4821": "Ġunit", "4822": "acters", "4823": "ĠTR", "4824": "iful", "4825": "exports", "4826": "project", "4827": "Application", "4828": "legate", "4829": "Ġtakes", "4830": "term", "4831": "Ġetc", "4832": "uster", "4833": "Ġappear", "4834": "address", "4835": "Ġfem", "4836": "hs", "4837": "Ġhom", "4838": ",-", "4839": "Ġdifficult", "4840": "Ġcoming", "4841": "Open", "4842": "Ġsettings", "4843": "ĠWar", "4844": "ĠThen", "4845": "Ġautom", "4846": "ĠFoundation", "4847": "Ġquite", "4848": "Description", "4849": "Ġblog", "4850": "iqu", "4851": "PS", "4852": "_field", "4853": "Json", "4854": "SSION", "4855": "ĠSch", "4856": "ĠLO", "4857": "Ġdescri", "4858": "Ġeveryone", "4859": "Ġpretty", "4860": "Ġlonger", "4861": "Ġmenu", "4862": "Ġcurrently", "4863": "sec", "4864": "Ġrelationship", "4865": "################################", "4866": "ĠMap", "4867": "aset", "4868": "Ġparameters", "4869": "Ġcrush", "4870": "ILITY", "4871": "igration", "4872": "Ġcout", "4873": "total", "4874": "Ġnames", "4875": "ndef", "4876": "\");", "4877": "riend", "4878": "ynamic", "4879": "Ġeffort", "4880": "Ġactual", "4881": "Ġfields", "4882": "OUN", "4883": "ters", "4884": "Ġfix", "4885": "_model", "4886": "Ġcases", "4887": "CA", "4888": "My", "4889": "Interface", "4890": "ĠSE", "4891": "]]", "4892": "alle", "4893": "ĠNational", "4894": "ĠArrayList", "4895": "inline", "4896": ".V", "4897": "ara", "4898": "refix", "4899": "asc", "4900": "Reader", "4901": "ĠÐ¿", "4902": "astic", "4903": "(()", "4904": "Cl", "4905": ".annotation", "4906": "Ġperformance", "4907": "aily", "4908": ".toString", "4909": ".net", "4910": "views", "4911": ".end", "4912": "ayers", "4913": "late", "4914": "ĠApr", "4915": "ederal", "4916": "'])", "4917": ".body", "4918": "Ġhigher", "4919": "_fl", "4920": "cr", "4921": "alert", "4922": "_node", "4923": "ĠGoogle", "4924": "Ġitself", "4925": "Auth", "4926": "urrency", "4927": "Ġsignificant", "4928": "append", "4929": "Ġrespect", "4930": "strap", "4931": "Ġuna", "4932": "riteria", "4933": "PORT", "4934": ".apache", "4935": "Output", "4936": "Ġprogress", "4937": "Ġmid", "4938": "ĠMicrosoft", "4939": "Ġresource", "4940": "ablish", "4941": "Ġdim", "4942": ".load", "4943": ".App", "4944": "Ġdirection", "4945": "Ġadditional", "4946": "ĠĠĠĠĠĠĠĠĠĠĠĠĠĠĠĠĠĠĠĠĠĠĠĠ", "4947": "Ġnumbers", "4948": "Ġcompanies", "4949": ".Th", "4950": "Ġsound", "4951": "username", "4952": "Ġstatement", "4953": "Ġalert", "4954": "Ġcontract", "4955": "home", "4956": "_length", "4957": ".Component", "4958": "ev", "4959": ".Ex", "4960": "ï¼ļ", "4961": "\";", "4962": "ĠHigh", "4963": "ĠPoint", "4964": "oph", "4965": "Ġlines", "4966": "->_", "4967": "ox", "4968": "application", "4969": "ĊĊĊĊĊĊ", "4970": "Ġsoon", "4971": "ctions", "4972": "inger", "4973": "Ġjoin", "4974": "ĠPe", "4975": "Ġë", "4976": "Ġlas", "4977": ".E", "4978": "css", "4979": "/or", "4980": "ĠStart", "4981": "ĠTO", "4982": "Ġsubs", "4983": "conn", "4984": "components", "4985": "DEBUG", "4986": "quare", "4987": "Function", "4988": "endar", "4989": ".index", "4990": "Ġfill", "4991": "ÄĻ", "4992": "Ġchoose", "4993": "how", "4994": "ĠAmerica", "4995": "assets", "4996": "------------", "4997": "ĠValue", "4998": "Ġoffice", "4999": "Ġveh", "5000": "Ġtransform", "5001": "ĠArt", "5002": "Ġinde", "5003": "Ġfn", "5004": "Ġimplements", "5005": "ango", "5006": "plete", "5007": "+\"", "5008": "tmp", "5009": "amily", "5010": "Ġhash", "5011": "missions", "5012": "EST", "5013": "gt", "5014": "Provider", "5015": "ĠĠĠĠĠĠĠĠĠĠĠĠĠĠĠĠĠĠĠĠĠĠ", "5016": "Ġflag", "5017": "Ġparticip", "5018": "den", "5019": "ĠReturns", "5020": "Ġnote", "5021": "Ã¼r", "5022": "pm", "5023": "ideos", "5024": "Ġspecified", "5025": "ĠEN", "5026": "ester", "5027": "olid", "5028": "Ġupon", "5029": "(std", "5030": "ĉv", "5031": "Ġ'\\", "5032": "uz", "5033": "Ġvert", "5034": "Ġvict", "5035": "ĉself", "5036": "Ġ\"$", "5037": ".k", "5038": "Ġgroups", "5039": "github", "5040": "lang", "5041": "Ġmut", "5042": "TO", "5043": "Ġve", "5044": "ĠPlease", "5045": "access", "5046": "Ġ{\"", "5047": "rea", "5048": "Ġrisk", "5049": "icker", "5050": "oggle", "5051": "ĉwhile", "5052": "ANG", "5053": ".send", "5054": "Ġwoman", "5055": "Ġgets", "5056": "Ġign", "5057": "ĠId", "5058": "_log", "5059": "ONE", "5060": "Ġevid", "5061": "ĠHar", "5062": "_sub", "5063": "Ġendl", "5064": "Ġincluded", "5065": "ĠAp", "5066": "igr", "5067": "Ġsem", "5068": "ĠBlack", "5069": "doc", "5070": "_table", "5071": "ĠĠĠĠĠĠĠĠĠĠĠĠĠĠĠĠĠĠĠĠĠĠĠĠĠĠĠĠĠĠĠĠĠĠĠĠĠĠĠĠĠĠĠĠĠĠĠĠĠĠĠĠĠĠĠĠĠĠĠĠĠĠĠĠ", "5072": "-up", "5073": "Ġcause", "5074": "Ġ..", "5075": "Ġvan", "5076": "_dict", "5077": "Ġfocus", "5078": "IND", "5079": "CESS", "5080": ".Log", "5081": "Ġmultiple", "5082": "ido", "5083": "Ġregard", "5084": "-M", "5085": "andler", "5086": "ourse", "5087": "Ġdeg", "5088": ".U", "5089": "Ġaddition", "5090": "Ġvarious", "5091": "Ġreceive", "5092": "ÐµÐ½", "5093": "ĠHT", "5094": "Obj", "5095": "DF", "5096": "Ġincrease", "5097": "ĠOpen", "5098": "];", "5099": "Ġcommit", "5100": "ategories", "5101": "atory", "5102": "ship", "5103": "ĠMich", "5104": "Ġhtml", "5105": "romise", "5106": "Ġleave", "5107": "Ġstrateg", "5108": "aven", "5109": "ĠConsole", "5110": "known", "5111": "-n", "5112": "_LE", "5113": ".component", "5114": "Ġbre", "5115": "Session", "5116": "iance", "5117": "Ġalign", "5118": "typedef", "5119": "_result", "5120": "ĠWHERE", "5121": ".split", "5122": "Ġreading", "5123": "FAULT", "5124": "Ġclo", "5125": "Ġnotice", "5126": "_pr", "5127": "arter", "5128": "Ġlock", "5129": "Ġstandard", "5130": "etic", "5131": "ellow", "5132": "Ġpadding", "5133": "ĠHis", "5134": "Ġstates", "5135": "_cast", "5136": "(P", "5137": "aa", "5138": "Ġinternal", "5139": "ean", "5140": "ĠPRO", "5141": "ĠKey", "5142": "Ġespecially", "5143": "ming", "5144": "Ġcross", "5145": "Ġnational", "5146": "_object", "5147": "filter", "5148": "Ġscript", "5149": ".update", "5150": "_i", "5151": "ĠAssert", "5152": "/core", "5153": "%%%%", "5154": "Ġproblems", "5155": "istor", "5156": "Ġ.=", "5157": "Ġarch", "5158": "Ġwritten", "5159": "Ġmilit", "5160": "MENT", "5161": ".ch", "5162": "cape", "5163": "ĠMus", "5164": "_config", "5165": "ĠAPI", "5166": "foot", "5167": "Ġimages", "5168": "endl", "5169": ".In", "5170": "First", "5171": "Ġplatform", "5172": ".prot", "5173": "Option", "5174": "ste", "5175": "ĠTODO", "5176": "Ġforce", "5177": ".cont", "5178": "ĉecho", "5179": "ĠDav", "5180": "Ptr", "5181": "(B", "5182": "RT", "5183": "ĠBase", "5184": "]['", "5185": "Ġannounc", "5186": "console", "5187": "ĠPy", "5188": "ds", "5189": ".as", "5190": "Ġprevent", "5191": "apan", "5192": "Ġ{'", "5193": "}</", "5194": "ĠService", "5195": "ĠSen", "5196": "ador", "5197": "profile", "5198": "Top", "5199": "Ġiter", "5200": "po", "5201": "IES", "5202": "JSON", "5203": "IE", "5204": "iant", "5205": "ãĢģ", "5206": "_j", "5207": "ĠSept", "5208": "_map", "5209": "bum", "5210": "(context", "5211": "ĠHome", "5212": "ians", "5213": "GB", "5214": "Ġliving", "5215": "Ġpattern", "5216": "(input", "5217": "icient", "5218": "Core", "5219": "Ġentity", "5220": "Ġinteg", "5221": "Changed", "5222": "Ġuseful", "5223": ".info", "5224": "Ġtool", "5225": "(item", "5226": "Ġok", "5227": "Ġfeed", "5228": "IX", "5229": "Ã©s", "5230": "ĠNews", "5231": "remove", "5232": "erry", "5233": "ĉĉĉĉĉĉĉĉĉ", "5234": "ipment", "5235": "ares", "5236": "Do", "5237": "Current", "5238": ".content", "5239": ".Group", "5240": "ustral", "5241": "ĠÑģ", "5242": "})", "5243": "Ġpopular", "5244": "Ġstre", "5245": "Ġmethods", "5246": "_ERROR", "5247": "Left", "5248": "cal", "5249": "bsp", "5250": ".ToString", "5251": "Ġdir", "5252": "Ġallowed", "5253": "Ġimpact", "5254": ".config", "5255": "Ġelements", "5256": "Ġprote", "5257": "Ġtrain", "5258": ".tr", "5259": "rs", "5260": "ĠRepublic", "5261": "ĠTask", "5262": "aries", "5263": "(D", "5264": "(get", "5265": "Ġrelated", "5266": "Ġvers", "5267": "Ġsil", "5268": "Ġcmd", "5269": "Ġtechnology", "5270": ".width", "5271": "Float", "5272": "ĠUse", "5273": "Body", "5274": "should", "5275": ".join", "5276": "Font", "5277": "llum", "5278": "ycle", "5279": "ĠBrit", "5280": "Ġmit", "5281": "Ġscale", "5282": "Ġ(_", "5283": "ernel", "5284": "Ġscore", "5285": "/v", "5286": "Ġstudent", "5287": "UC", "5288": ".show", "5289": "Ġaverage", "5290": "Enabled", "5291": "(ex", "5292": "common", "5293": "imation", "5294": ":@\"", "5295": "chie", "5296": "river", "5297": "ĠMarch", "5298": "category", "5299": "fin", "5300": "Ġcourt", "5301": "Ð²", "5302": "Server", "5303": "Ġcontainer", "5304": "-st", "5305": "_for", "5306": "Ġparts", "5307": "Ġdecision", "5308": "obs", "5309": "oub", "5310": "mitted", "5311": "Ġ$('#", "5312": "Ġsaw", "5313": "Ġapproach", "5314": "ICE", "5315": "Ġsaying", "5316": "Ġanyone", "5317": "meta", "5318": "SD", "5319": "Ġsong", "5320": "display", "5321": "Oper", "5322": "outes", "5323": "Ġchannel", "5324": "Ġchanged", "5325": "Ãª", "5326": "Ġfinally", "5327": "_number", "5328": "Please", "5329": "à¤", "5330": "oring", "5331": "-re", "5332": "Ġkill", "5333": "Ġdrug", "5334": "window", "5335": "Ġconvert", "5336": "ombre", "5337": "Ġways", "5338": "Helper", "5339": "ĠFirst", "5340": "(__", "5341": "urity", "5342": "ĠWindows", "5343": "ees", "5344": "Ġmat", "5345": "rapper", "5346": "Ġplus", "5347": "anges", "5348": "\"].", "5349": "azon", "5350": "/t", "5351": "lat", "5352": "aste", "5353": "Ġprofile", "5354": "Ġready", "5355": "#ifndef", "5356": "rote", "5357": "Ġsense", "5358": "Gener", "5359": "ĠConfig", "5360": "omy", "5361": "ĠJune", "5362": "Ġlatest", "5363": "Ġsaf", "5364": "Ġregion", "5365": "Ġdeep", "5366": "witch", "5367": "ĠPark", "5368": "}`", "5369": "ĠFrom", "5370": "II", "5371": "Ġcv", "5372": "Ġreach", "5373": "Ġcounter", "5374": "ĠWork", "5375": "ĠURL", "5376": "ĠUpdate", "5377": "Ġimmedi", "5378": "close", "5379": "ados", "5380": "ferred", "5381": "Ġweeks", "5382": "urg", "5383": "Ġdamage", "5384": "Ġlost", "5385": "ani", "5386": "_lo", "5387": "Ġhimself", "5388": "Ġdog", "5389": "ï¿", "5390": "pir", "5391": "tt", "5392": "Ġpaper", "5393": "Ġthems", "5394": "second", "5395": "Ġstaff", "5396": "ĠInput", "5397": "\"+", "5398": "ĠFacebook", "5399": "Ġalloc", "5400": "Ġsched", "5401": "ACE", "5402": "Ġthemselves", "5403": "ĠComponent", "5404": "Ġdriver", "5405": "ja", "5406": "(path", "5407": "Ġcategory", "5408": "alls", "5409": "pu", "5410": "lluminate", "5411": "ĠAction", "5412": ".button", "5413": "ĠGL", "5414": "istics", "5415": "Ġoil", "5416": "Ġstock", "5417": ">'", "5418": "Ġdead", "5419": "VAL", "5420": "QUE", "5421": "************************************************************************", "5422": "Ġcharg", "5423": "Return", "5424": "Ġful", "5425": "dom", "5426": "Ġrules", "5427": "Ġmodify", "5428": "Ġeval", "5429": "ham", "5430": "atement", "5431": "\\<", "5432": "ula", "5433": "=False", "5434": "RA", "5435": "Ġcontains", "5436": "Ġstack", "5437": "mar", "5438": "Ġundefined", "5439": "Ass", "5440": "ĠChina", "5441": "vey", "5442": "Ġplaying", "5443": ")/", "5444": "actor", "5445": "Ġbottom", "5446": "lier", "5447": "ĠNumber", "5448": "Ġcouple", "5449": "DC", "5450": "ĠSO", "5451": "gor", "5452": ".setText", "5453": "success", "5454": "command", "5455": "Filter", "5456": "ĠOur", "5457": "_item", "5458": "Ġctx", "5459": "Ġroad", "5460": "Version", "5461": "case", "5462": "urt", "5463": "avior", "5464": "ych", "5465": "sembly", "5466": "ĠProduct", "5467": "Ġheld", "5468": "afe", "5469": "Ġincludes", "5470": "<quote", "5471": "Ġavoid", "5472": "ĠFin", "5473": "ĠMod", "5474": "Ġtab", "5475": "ano", "5476": "Ã±", "5477": "ipping", "5478": "-e", "5479": "Ġinsert", "5480": "target", "5481": "chan", "5482": ".Model", "5483": "IME", "5484": "Ġmachine", "5485": "avy", "5486": "ĠNO", "5487": "ĠInter", "5488": "Ġoperation", "5489": "modal", "5490": "Tag", "5491": "]:", "5492": "Ġproduction", "5493": "Ġareas", "5494": "Ġren", "5495": "_from", "5496": "nbsp", "5497": "Ġoperator", "5498": "men", "5499": "apped", "5500": "_per", "5501": "zen", "5502": "(\".", "5503": ".save", "5504": "=\"{{", "5505": "Ġtor", "5506": "(response", "5507": "Ġcandid", "5508": "Ġconv", "5509": "ailed", "5510": "ĠLib", "5511": "comp", "5512": "ura", "5513": "ï¿½", "5514": "ĠHere", "5515": "Ġargument", "5516": "hood", "5517": "Ġestablish", "5518": "ography", "5519": "ĠonClick", "5520": "ambda", "5521": "Ġsch", "5522": "Ġmovie", "5523": "Ġsec", "5524": "Ġactivity", "5525": "Ø§", "5526": "Ġsql", "5527": "_all", "5528": "incip", "5529": "Ġprovides", "5530": "Ġsys", "5531": "acket", "5532": "Ġwasn", "5533": "Ġuses", "5534": "ĠFunction", "5535": ".google", "5536": "ĠResult", "5537": "Visible", "5538": "agma", "5539": "elcome", "5540": "ĠSy", "5541": "ĠCent", "5542": "ALSE", "5543": "aciÃ³n", "5544": "EXT", "5545": "Ġlicense", "5546": "ĠLong", "5547": "Ġaccom", "5548": "Ġability", "5549": ".height", "5550": "Active", "5551": "ological", "5552": "oly", "5553": ")),", "5554": ".Se", "5555": "Ġparameter", "5556": "prite", "5557": "ABILITY", "5558": ".service", "5559": "ĠGroup", "5560": "_query", "5561": "ĠItem", "5562": "ining", "5563": "Ġjud", "5564": "ims", "5565": "fix", "5566": "inder", "5567": "agram", "5568": "Ġfunctions", "5569": "Ġexperi", "5570": "ĠEm", "5571": "Ġrot", "5572": "Ġpen", "5573": ".btn", "5574": "ĠAS", "5575": "#ifdef", "5576": "Ġchoice", "5577": "ĠPage", "5578": "_PRO", "5579": "QU", "5580": "antity", "5581": "ÂŃ", "5582": "words", "5583": "Ġreadonly", "5584": "Ġflex", "5585": "protected", "5586": "ĠAny", "5587": "Ġcharacters", "5588": "enced", "5589": "ĠJuly", "5590": "iler", "5591": "Card", "5592": "urance", "5593": "Ġrev", "5594": ".event", "5595": "aly", "5596": "Ġwonder", "5597": "ĠPort", "5598": "Ġlegal", "5599": "role", "5600": "Ġten", "5601": "Ġgoes", "5602": "MP", "5603": "white", "5604": "Ġreference", "5605": "Ġmis", "5606": "ĠProject", "5607": "icks", "5608": ">&", "5609": "CON", "5610": "Ġrepl", "5611": "Ġregular", "5612": "Storage", "5613": "ramework", "5614": "Ġgoal", "5615": "Ġtouch", "5616": ".widget", "5617": "Ġbuilt", "5618": "des", "5619": "Part", "5620": "(re", "5621": "Ġworth", "5622": "hib", "5623": "game", "5624": "ĠÐ²", "5625": "acion", "5626": "ĠWhite", "5627": "(type", "5628": "(`", "5629": "Ġnatural", "5630": "Ġinj", "5631": "Ġcalcul", "5632": "ĠApril", "5633": ".List", "5634": "Ġassociated", "5635": "ĉSystem", "5636": "~~", "5637": "=[", "5638": "Ġstorage", "5639": "Ġbytes", "5640": "Ġtravel", "5641": "Ġsou", "5642": "Ġpassed", "5643": "!=", "5644": "ascript", "5645": ".open", "5646": "Ġgrid", "5647": "Ġbus", "5648": "Ġrecogn", "5649": "Ab", "5650": "Ġhon", "5651": "ĠCenter", "5652": "Ġprec", "5653": "build", "5654": "HTML", "5655": "ĠSan", "5656": "Ġcountries", "5657": "aled", "5658": "token", "5659": "kt", "5660": "Ġqual", "5661": "Last", "5662": "adow", "5663": "Ġmanufact", "5664": "idad", "5665": "jango", "5666": "Next", "5667": "xf", "5668": ".a", "5669": "Ġporno", "5670": "ĠPM", "5671": "erve", "5672": "iting", "5673": "_th", "5674": "ci", "5675": "=None", "5676": "gs", "5677": "Ġlogin", "5678": "atives", "5679": "Äħ", "5680": "Ġill", "5681": "IA", "5682": "children", "5683": "DO", "5684": "Ġlevels", "5685": "Ġ{{", "5686": "Ġlooks", "5687": "Ġ\"#", "5688": "ToString", "5689": "Ġnecessary", "5690": "ĠĠĠĊ", "5691": "cell", "5692": "Entry", "5693": "Ġ'#", "5694": "Ġextrem", "5695": "Selector", "5696": "Ġplaceholder", "5697": "Load", "5698": "Ġreleased", "5699": "ORE", "5700": "Enumer", "5701": "ĠTV", "5702": "SET", "5703": "inq", "5704": "Press", "5705": "ĠDepartment", "5706": "Ġproperties", "5707": "Ġrespond", "5708": "Search", "5709": "ael", "5710": "Ġrequ", "5711": "ĠBook", "5712": "(st", "5713": "Ġfinancial", "5714": "icket", "5715": "_input", "5716": "Ġthreat", "5717": "(in", "5718": "Strip", "5719": "ìĿ", "5720": "Ã§Ã£o", "5721": "Ġevidence", "5722": "));", "5723": "ĠBro", "5724": "Ġou", "5725": "buf", "5726": "Script", "5727": "dat", "5728": "Ġrule", "5729": "#import", "5730": "=\"/", "5731": "Serial", "5732": "Ġstarting", "5733": "[index", "5734": "ae", "5735": "Ġcontrib", "5736": "session", "5737": "_new", "5738": "utable", "5739": "ober", "5740": "Ġ\"./", "5741": "Ġlogger", "5742": "Ġrecently", "5743": "Ġreturned", "5744": "ččĊ", "5745": "itions", "5746": "Ġseek", "5747": "Ġcommunic", "5748": "Ġ\".", "5749": "Ġusername", "5750": "ECT", "5751": "DS", "5752": "Ġotherwise", "5753": "ĠGerman", "5754": ".aw", "5755": "Adapter", "5756": "ixel", "5757": "Ġsystems", "5758": "Ġdrop", "5759": "Ġstructure", "5760": "Ġ$(\"#", "5761": "encies", "5762": "anning", "5763": "ĠLink", "5764": "ĠResponse", "5765": "Ġstri", "5766": "Å¼", "5767": "ĠDB", "5768": "android", "5769": "submit", "5770": "otion", "5771": "(@", "5772": ".test", "5773": "ĊĊĊĊĊĊĊĊ", "5774": "Ġdirectly", "5775": "Ġ\"%", "5776": "ris", "5777": "elta", "5778": "AIL", "5779": "mine", "5780": "ĠĠĠĠĠĠĠĠĠĠĠĠĠĠĠĠĠĠĠĠĠĠĠĠĠĠ", "5781": "(k", "5782": "bon", "5783": "asic", "5784": "pite", "5785": "___", "5786": "Max", "5787": "Ġerrors", "5788": "ĠWhile", "5789": "Ġarguments", "5790": "Ġensure", "5791": "Right", "5792": "-based", "5793": "Web", "5794": "Ġ-=", "5795": "Ġintrodu", "5796": "ĠInst", "5797": "ĠWash", "5798": "ordin", "5799": "join", "5800": "Database", "5801": "Ġgrad", "5802": "Ġusually", "5803": "ITE", "5804": "Props", "5805": "ĠGo", "5806": "@Override", "5807": "REF", "5808": "Ġip", "5809": "ĠAustral", "5810": "Ġist", "5811": "ViewById", "5812": "Ġserious", "5813": "Ġcustomer", "5814": ".prototype", "5815": "odo", "5816": "cor", "5817": "Ġdoor", "5818": "ĠWITHOUT", "5819": "Ġplant", "5820": "Ġbegan", "5821": "Ġdistance", "5822": "()).", "5823": "Ġchance", "5824": "Ġord", "5825": "came", "5826": "pragma", "5827": "Ġprotect", "5828": "ragment", "5829": "ĠNode", "5830": "ening", "5831": "Ñĩ", "5832": "Ġroute", "5833": "ĠSchool", "5834": "hi", "5835": "Ġneighb", "5836": "After", "5837": "licit", "5838": "Ġcontr", "5839": "Ġprimary", "5840": "AA", "5841": ".WriteLine", "5842": "utils", "5843": "Ġbi", "5844": "Red", "5845": ".Linq", "5846": ".object", "5847": "Ġleaders", "5848": "unities", "5849": "Ġgun", "5850": "onth", "5851": "ĠDev", "5852": "FILE", "5853": "Ġcomments", "5854": "_len", "5855": "arrow", "5856": "amount", "5857": "Range", "5858": "sert", "5859": "GridView", "5860": "Ġupdated", "5861": "ĠMo", "5862": "Ġinform", "5863": "ociety", "5864": "ala", "5865": "Access", "5866": "Ġhab", "5867": "Ġcreat", "5868": "_arg", "5869": "ĠJanuary", "5870": "ĠDay", "5871": "uple", "5872": "document", "5873": "gorith", "5874": "menu", "5875": "ĠOver", "5876": "bb", "5877": ".title", "5878": "_out", "5879": "Ġled", "5880": "uri", "5881": "Ġ?></", "5882": "gl", "5883": "Ġbank", "5884": "ayment", "5885": "ĉprintf", "5886": "MD", "5887": "Ġsample", "5888": "Ġhands", "5889": "ĠVersion", "5890": "uario", "5891": "Ġoffers", "5892": "ityEngine", "5893": "Ġshape", "5894": "Ġsleep", "5895": "_point", "5896": "Settings", "5897": "Ġachie", "5898": "Ġsold", "5899": "ota", "5900": ".bind", "5901": "Am", "5902": "Ġsafe", "5903": "Store", "5904": "Ġshared", "5905": "Ġpriv", "5906": "_VAL", "5907": "Ġsens", "5908": "){", "5909": "Ġremember", "5910": "shared", "5911": "element", "5912": "Ġshoot", "5913": "Vert", "5914": "cout", "5915": "Ġenv", "5916": "_label", "5917": "run", "5918": "Ġscene", "5919": "(array", "5920": "device", "5921": "_title", "5922": "agon", "5923": "aby", "5924": "Ġbecame", "5925": "boolean", "5926": "Ġpark", "5927": "ĠCode", "5928": "upload", "5929": "riday", "5930": "ĠSeptember", "5931": "Fe", "5932": "Ġsen", "5933": "cing", "5934": "FL", "5935": "Col", "5936": "uts", "5937": "_page", "5938": "inn", "5939": "Ġimplied", "5940": "aling", "5941": "Ġyourself", "5942": ".Count", "5943": "conf", "5944": "Ġaud", "5945": "_init", "5946": ".)", "5947": "Ġwrote", "5948": "NG", "5949": ".Error", "5950": ".for", "5951": "Ġequal", "5952": "ĠRequest", "5953": "Ġserial", "5954": "Ġallows", "5955": "XX", "5956": "Ġmiddle", "5957": "chor", "5958": "Ã¸", "5959": "erval", "5960": ".Column", "5961": "reading", "5962": "Ġescort", "5963": "ĠAugust", "5964": "Ġquickly", "5965": "Ġweap", "5966": "ĠCG", "5967": "ropri", "5968": "ho", "5969": "Ġcop", "5970": "(struct", "5971": "ĠBig", "5972": "Ġvs", "5973": "Ġfrequ", "5974": ".Value", "5975": "Ġactions", "5976": "Ġproper", "5977": "Ġinn", "5978": "Ġobjects", "5979": "Ġmatrix", "5980": "avascript", "5981": "Ġones", "5982": ".group", "5983": "Ġgreen", "5984": "Ġpaint", "5985": "ools", "5986": "ycl", "5987": "encode", "5988": "olt", "5989": "comment", "5990": ".api", "5991": "Dir", "5992": "Ġune", "5993": "izont", "5994": ".position", "5995": "Ġdesigned", "5996": "_val", "5997": "avi", "5998": "iring", "5999": "tab", "6000": "Ġlayer", "6001": "Ġviews", "6002": "Ġreve", "6003": "rael", "6004": "ĠON", "6005": "rics", "6006": "np", "6007": "Ġcore", "6008": "Main", "6009": "Ġexpert", "6010": "ĉĉčĊ", "6011": "_en", "6012": "Ġ/>", "6013": "utter", "6014": "IAL", "6015": "ails", "6016": "ĠKing", "6017": "ĠMet", "6018": "_end", "6019": "addr", "6020": "ora", "6021": "Ġir", "6022": "Min", "6023": "Ġsurpr", "6024": "Ġrepe", "6025": "Ġdirectory", "6026": "PUT", "6027": "-S", "6028": "Ġelection", "6029": "haps", "6030": ".pre", "6031": "cm", "6032": "Values", "6033": "column", "6034": "ivil", "6035": "Login", "6036": "inue", "6037": "Ġbeautiful", "6038": "Ġsecret", "6039": "(event", "6040": "Ġchat", "6041": "ums", "6042": "Ġorigin", "6043": "Ġeffects", "6044": "Ġmanagement", "6045": "illa", "6046": "tk", "6047": "Ġsetting", "6048": "ĠCour", "6049": "Ġmassage", "6050": "ĉend", "6051": "Ġhappy", "6052": "Ġfinish", "6053": "Ġcamera", "6054": "ĠVer", "6055": "ĠDemocr", "6056": "ĠHer", "6057": "(Q", "6058": "cons", "6059": "ita", "6060": "Ġ'.", "6061": "{}", "6062": "ĉC", "6063": "Ġstuff", "6064": "ĠAR", "6065": "Task", "6066": "hidden", "6067": "eros", "6068": "IGN", "6069": "atio", "6070": "ĠHealth", "6071": "olute", "6072": "Enter", "6073": "'>", "6074": "ĠTwitter", "6075": "ĠCounty", "6076": "scribe", "6077": "Ġhy", "6078": "fit", "6079": "Ġmilitary", "6080": "Ġsale", "6081": "required", "6082": "non", "6083": "bootstrap", "6084": "hold", "6085": "rim", "6086": "-old", "6087": "ĠDown", "6088": "Ġmention", "6089": "contact", "6090": "_group", "6091": "oday", "6092": "Ġtown", "6093": "Ġsolution", "6094": "uate", "6095": "elling", "6096": "]->", "6097": "otes", "6098": "ental", "6099": "omen", "6100": "ospital", "6101": "ĠSup", "6102": "_EN", "6103": "Ġslow", "6104": "SESSION", "6105": "Ġblue", "6106": "ago", "6107": "Ġlives", "6108": "Ġ^", "6109": ".un", "6110": "inst", "6111": "enge", "6112": "Ġcustomers", "6113": "Ġcast", "6114": "udget", "6115": "ï¼ģ", "6116": "icens", "6117": "Ġdetermin", "6118": "Selected", "6119": "_pl", "6120": "ueue", "6121": "Ġdark", "6122": "si", "6123": "thern", "6124": "ĠJapan", "6125": "/w", "6126": "PU", "6127": "ĠEast", "6128": "ovie", "6129": "Ġpackage", "6130": "Ġnor", "6131": "Ġapi", "6132": "bot", "6133": "_post", "6134": "ulate", "6135": "Ġclub", "6136": "Ġloop", "6137": "PIO", "6138": "ione", "6139": "shot", "6140": "Initial", "6141": "Ġplayed", "6142": "register", "6143": "rought", "6144": "_max", "6145": "acement", "6146": "match", "6147": "raphics", "6148": "AST", "6149": "Ġexisting", "6150": "Ġcomplex", "6151": "DA", "6152": ".Ch", "6153": ".common", "6154": "mo", "6155": "Ġ'../../", "6156": "ito", "6157": "Ġanalysis", "6158": "Ġdeliver", "6159": "ĠĠĠĠĠĠĠĠĠĠĠĠĠĠĠĠĊ", "6160": "idx", "6161": "Ãł", "6162": "ongo", "6163": "ĠEnglish", "6164": "<!--", "6165": "Ġcomputer", "6166": "ENSE", "6167": "Ġpas", "6168": "Ġrais", "6169": "Hash", "6170": "Ġmobile", "6171": "Ġowner", "6172": "FIG", "6173": "ĠĠĠĠĠĠĠĠĠĠĠĠĠĠĠĠĠĠĠĠĠĠĠĠĠĠĠĠĠĠĠĠĠĠĠĠĠĠĠĠĠĠĠĠĠĠĠĠĠĠĠ", "6174": "thes", "6175": "Ġattr", "6176": "wd", "6177": ".time", "6178": "awn", "6179": "Ġtreatment", "6180": "ĠAc", "6181": ".View", "6182": "impl", "6183": "more", "6184": "pass", "6185": "Ġha", "6186": ".from", "6187": "Ġleading", "6188": "FFFF", "6189": "(error", "6190": ".ui", "6191": "atar", "6192": "aders", "6193": "dates", "6194": "Ġzu", "6195": "Ġflow", "6196": "Target", "6197": "Ġinvolved", "6198": "Ġio", "6199": "parse", "6200": "$_", "6201": "hest", "6202": ".int", "6203": "-item", "6204": "asy", "6205": "Sp", "6206": "Ġshift", "6207": "NT", "6208": "Ġtf", "6209": "_TR", "6210": ".web", "6211": "CS", "6212": "Ġ})", "6213": "Ġeyes", "6214": "_z", "6215": "iforn", "6216": "Ġ{@", "6217": "Ġnice", "6218": ".list", "6219": "ĠĠĠĠčĊ", "6220": "Ġfloor", "6221": "Ġredirect", "6222": "ĠUK", "6223": "(['", "6224": "Ġwish", "6225": "Ġcapt", "6226": "legal", "6227": "ĠIO", "6228": "Ġstage", "6229": ".String", "6230": "ĠAfr", "6231": "igen", "6232": "ĠSH", "6233": "Delete", "6234": "ells", "6235": "Ġsolid", "6236": "Ġmeeting", "6237": "Ġworked", "6238": "Ġeditor", "6239": "iny", "6240": "Ð¼", "6241": "_read", "6242": ".Id", "6243": "eff", "6244": "Offset", "6245": "cha", "6246": "USER", "6247": "ĉĉĠĠĠ", "6248": "ipped", "6249": "Ġdict", "6250": "ĠRun", "6251": ".hpp", "6252": "Ġang", "6253": "xml", "6254": "imple", "6255": "Ġmedical", "6256": "_token", "6257": "connect", "6258": "Ġhour", "6259": "Ġcontroller", "6260": "_message", "6261": "UID", "6262": "Gr", "6263": "anded", "6264": "_CH", "6265": "Ġbooks", "6266": "Ġspeak", "6267": "aming", "6268": "Ġmount", "6269": "Record", "6270": "ĉstruct", "6271": ".Web", "6272": "ondon", "6273": "Ġfelt", "6274": ".Auto", "6275": "idge", "6276": "_pos", "6277": "PR", "6278": "Ġmodern", "6279": "Collection", "6280": "_msg", "6281": "CD", "6282": "ĠLo", "6283": "Ġseconds", "6284": "ibly", "6285": ".equals", "6286": "Ġinternational", "6287": "#pragma", "6288": "ooth", "6289": "Writer", "6290": "iate", "6291": "Ġcele", "6292": "ĠBit", "6293": "ivo", "6294": "ivery", "6295": "rd", "6296": "HECK", "6297": "Ġcache", "6298": ".count", "6299": "Ġroll", "6300": ".Read", "6301": "RED", "6302": "Ġsetup", "6303": "izontal", "6304": "models", "6305": "argv", "6306": "Ġconsidered", "6307": "=\"../", "6308": "settings", "6309": "ĠRel", "6310": "Ġgrowth", "6311": "Ġmix", "6312": "ĠWashington", "6313": "Ġplt", "6314": "ĠIM", "6315": "áº", "6316": "Ġturned", "6317": "ĠDateTime", "6318": "ĠWed", "6319": "(url", "6320": "Ġ\"-", "6321": "Ġletter", "6322": "Async", "6323": "ĠĠĠĠĠĠĠĠĠĠĠĠĠĠĠĠĠĠĠĠĠĠĠĠĠĠĠĠ", "6324": "ĠOctober", "6325": "_line", "6326": "Ġattention", "6327": "Ġcollect", "6328": "ĠHash", "6329": "Ġimag", "6330": "Tree", "6331": "Ġsituation", "6332": "ette", "6333": "_no", "6334": "IVE", "6335": "Ġvon", "6336": ".target", "6337": "Ġknowledge", "6338": "Ġdrive", "6339": ".post", "6340": "Ġblood", "6341": "Ġcit", "6342": "primary", "6343": "Ġconfiguration", "6344": "tee", "6345": "Ġphoto", "6346": "isode", "6347": "Trace", "6348": "Ġgave", "6349": "Ġshot", "6350": "ĠAir", "6351": "Ġmother", "6352": "price", "6353": "Ġmorning", "6354": "-x", "6355": "Ġtrade", "6356": "Ġdesc", "6357": "Ġparents", "6358": "Api", "6359": "ted", "6360": "wer", "6361": "Ġsy", "6362": "ĠKe", "6363": "Parser", "6364": "ancy", "6365": "Ġpiece", "6366": "ifornia", "6367": "toString", "6368": "ran", "6369": "iding", "6370": "PTION", "6371": "comes", "6372": "/lic", "6373": ".client", "6374": "El", "6375": "Long", "6376": "Ġprofessional", "6377": "rupt", "6378": "va", "6379": "Ġcompletely", "6380": "Ġpractice", "6381": "Ġselection", "6382": "Rem", "6383": "ini", "6384": "Ġcam", "6385": "REE", "6386": "Ġsites", "6387": "pa", "6388": "ATUS", "6389": "ÑģÑĤ", "6390": "arrant", "6391": "*(", "6392": "_KEY", "6393": "ĠButton", "6394": "ĠFriday", "6395": "sequ", "6396": "Ġreader", "6397": "Ġmessages", "6398": "Ġbuf", "6399": "Ke", "6400": "Ġnov", "6401": "HP", "6402": "Msg", "6403": "align", "6404": "arily", "6405": "Ġ',", "6406": "_with", "6407": "Ġdas", "6408": "Ġheard", "6409": "atomic", "6410": "rial", "6411": ")[", "6412": "Ġdise", "6413": "@end", "6414": "Ġgold", "6415": "Ġfair", "6416": "Ġsales", "6417": ".Button", "6418": "strict", "6419": "save", "6420": "Ġmeasure", "6421": "Ġ\"+", "6422": "ecause", "6423": "ViewController", "6424": "ĠTable", "6425": ".param", "6426": "Ġdecided", "6427": "(((", "6428": "INFO", "6429": "Ġopportunity", "6430": "Te", "6431": "ICENSE", "6432": "ccording", "6433": "ki", "6434": "ĠUN", "6435": "Ġcontain", "6436": "Ġmanager", "6437": "Ġpain", "6438": "ĠFire", "6439": "rome", "6440": "Ġplans", "6441": "Found", "6442": "lay", "6443": "ĠDecember", "6444": "Ġinflu", "6445": "Ãº", "6446": "rench", "6447": "ĠĠĠĠĠĠĠĠĠĠĠĠĠĠĠĠĠĠĠĠĠĠĠĠĠĠĠĠĠĠĠĠĠ", "6448": "azing", "6449": "brief", "6450": "call", "6451": "wood", "6452": "Ġloaded", "6453": "Ġgrand", "6454": "/f", "6455": "imp", "6456": "_U", "6457": "STR", "6458": "âĢ¢", "6459": "Ġcredit", "6460": ".Color", "6461": "orge", "6462": "QUEST", "6463": "Ġdifference", "6464": "ĠPC", "6465": "wargs", "6466": "Ġpub", "6467": "unday", "6468": "Ġfra", "6469": ".max", "6470": "Ġtried", "6471": "annels", "6472": "send", "6473": "Ġreports", "6474": "Ġadult", "6475": "Ġconsist", "6476": "ĠStreet", "6477": "ĠProgram", "6478": "SQL", "6479": "Matrix", "6480": "ouncil", "6481": "-A", "6482": "ĉw", "6483": "Ġwhose", "6484": "Ġrelig", "6485": "ĠSex", "6486": "Ġgives", "6487": "none", "6488": ".message", "6489": "(G", "6490": ".awt", "6491": "-right", "6492": "ĠNovember", "6493": "ellig", "6494": "utive", "6495": "Äĥ", "6496": "overn", "6497": "Ġeasily", "6498": "Ġideas", "6499": "ĠÐ½", "6500": "/css", "6501": "lying", "6502": "elle", "6503": "Can", "6504": "_color", "6505": "Ġpair", "6506": "ngth", "6507": "Ġsplit", "6508": "drop", "6509": "arty", "6510": "ona", "6511": "Ġcapital", "6512": "Ġhear", "6513": "Ġexists", "6514": "ĉlog", "6515": "emo", "6516": "Run", "6517": "oi", "6518": "Ġparser", "6519": "ĠMethod", "6520": "Ġeducation", "6521": "[k", "6522": "Ġlibrary", "6523": "_UN", "6524": "ĉstd", "6525": "oded", "6526": "Ġcalls", "6527": "here", "6528": "Rel", "6529": "Ġbrand", "6530": "background", "6531": "ga", "6532": "_address", "6533": "_params", "6534": "Category", "6535": "ĠIndia", "6536": "_event", "6537": "Ġing", "6538": "Render", "6539": ".cl", "6540": "umpy", "6541": "Ġpet", "6542": "FC", "6543": "ĠAnt", "6544": "Ext", "6545": "Ġcharge", "6546": "ened", "6547": "grad", "6548": "EO", "6549": "Ġdepend", "6550": "frame", "6551": "Ġdf", "6552": "Ġhuge", "6553": "ĠPART", "6554": "eds", "6555": ";;", "6556": "ĠAM", "6557": "Ġbasic", "6558": "ĠLet", "6559": "lich", "6560": "Ġarm", "6561": "Ġstar", "6562": "Ġfederal", "6563": "Work", "6564": "Ġcarry", "6565": "ĠIsrael", "6566": "(obj", "6567": "={{", "6568": "Ġsaved", "6569": "Ġsyn", "6570": "Ġconstant", "6571": "VENT", "6572": "Ġpositive", "6573": "Ġconduct", "6574": "Ġskin", "6575": "Ġearlier", "6576": "Ġlayout", "6577": "ĠIP", "6578": "OUR", "6579": "Ġtim", "6580": "stylesheet", "6581": "_cl", "6582": "ĠCard", "6583": "Ġtemper", "6584": "ĠDavid", "6585": "ĉtry", "6586": ".dart", "6587": "Ġwants", "6588": "Ġpicture", "6589": "Ġvideos", "6590": "ĠComm", "6591": "isions", "6592": "_MAX", "6593": "Mapping", "6594": "-content", "6595": "ĠEar", "6596": "-de", "6597": "Ġprem", "6598": "bruary", "6599": "Ġcomponents", "6600": "Ġthroughout", "6601": "Ġpull", "6602": "Ġpages", "6603": "ente", "6604": "respond", "6605": "Ġgas", "6606": "criptor", "6607": "Ġedge", "6608": "Ġbound", "6609": "ACT", "6610": "******", "6611": "Ġcreating", "6612": "ĠCH", "6613": "Ġnullptr", "6614": "Br", "6615": "+'", "6616": ".co", "6617": ">::", "6618": "Ġlearning", "6619": ".Length", "6620": "_SH", "6621": "Ġpatients", "6622": "AIN", "6623": "Ġkids", "6624": "Ġcomfort", "6625": "Ġshown", "6626": "ugins", "6627": "ĠBack", "6628": "ella", "6629": "_CL", "6630": "Ġlat", "6631": "Ġdispatch", "6632": "Ġclasses", "6633": ".at", "6634": ".begin", "6635": "Ġsuccessful", "6636": "ban", "6637": "Ġobtain", "6638": "ĠSl", "6639": "Ġlack", "6640": "iterator", "6641": "Thread", "6642": "(size", "6643": "Ġnone", "6644": ".has", "6645": "_X", "6646": "sort", "6647": "nap", "6648": "pet", "6649": "bin", "6650": "ĠCanada", "6651": "They", "6652": "Ġdans", "6653": "ĠMat", "6654": "<td", "6655": "Ġhair", "6656": "Ġcu", "6657": "Ġlaws", "6658": "leted", "6659": "ped", "6660": "Ġpow", "6661": "Ġknew", "6662": "_COM", "6663": "_,", "6664": "ĠMag", "6665": "idents", "6666": "(req", "6667": "Ġ),", "6668": "-center", "6669": "Ġwide", "6670": "ĠAuthor", "6671": "stants", "6672": "Ġjobs", "6673": "Ġmath", "6674": "etimes", "6675": "Boolean", "6676": "Ġscope", "6677": "_is", "6678": "Ġmeas", "6679": "Ġkeys", "6680": "elay", "6681": "Ġexactly", "6682": "'=>'", "6683": "ĠPaul", "6684": "mas", "6685": "ĉprint", "6686": "(len", "6687": "fd", "6688": "Ġ);", "6689": ".Event", "6690": "qli", "6691": "irit", "6692": "ields", "6693": "oman", "6694": "ĠTop", "6695": "Ġvote", "6696": "Ġmask", "6697": "Ġtheme", "6698": "Ġprops", "6699": "Ġfine", "6700": "Ġwriter", "6701": "_offset", "6702": "car", "6703": "Ġaltern", "6704": "Ġcopyright", "6705": "Ġdestroy", "6706": "pper", "6707": "Ġgenerate", "6708": "pped", "6709": "âĢĻd", "6710": "ĠĠĠĠĠĠĊ", "6711": "make", "6712": "ĠShow", "6713": "Ġbrowser", "6714": "Ġfavorite", "6715": "Ġcareer", "6716": "Ġhappened", "6717": "(char", "6718": "Ġrecommend", "6719": "Ġliter", "6720": ".filter", "6721": "grade", "6722": "ĠÂ£", "6723": "Phone", "6724": "oms", "6725": "Ġnamed", "6726": "-label", "6727": "ipo", "6728": "ĠOther", "6729": "Ġpanel", "6730": "Ġrock", "6731": "Scale", "6732": "ĉassert", "6733": "Ð´", "6734": "Ġtrust", "6735": "front", "6736": "Ġdemon", "6737": "Ar", "6738": "Net", "6739": "Ġeconomic", "6740": "footer", "6741": "Ġrace", "6742": "(node", "6743": "ĠOption", "6744": "split", "6745": "Ġphysical", "6746": "ifest", "6747": "Ġremoved", "6748": ".http", "6749": "Ġlooked", "6750": "';", "6751": "ding", "6752": "gest", "6753": "aturday", "6754": "/licenses", "6755": "Price", "6756": "Ġdro", "6757": "Ġtowards", "6758": "Ġuns", "6759": "ĠCL", "6760": "ĉstatic", "6761": "Ġrows", "6762": "Ġdefine", "6763": ".replace", "6764": "Ġfather", "6765": "ĠDesign", "6766": "assign", "6767": "mut", "6768": "Device", "6769": "Did", "6770": "ometry", "6771": "ayload", "6772": "Ġhistor", "6773": "ĠParam", "6774": "ĠBoolean", "6775": "Ġnature", "6776": "Ġjs", "6777": "Ġnation", "6778": "ih", "6779": "Ġdiscover", "6780": "sem", "6781": "Handle", "6782": "ĉr", "6783": "ĠTechn", "6784": "Ġwall", "6785": "{$", "6786": "@property", "6787": "Ġ\"../", "6788": "Ġexam", "6789": ".draw", "6790": "opping", "6791": "Ġnearly", "6792": "Ġcool", "6793": "Ġindepend", "6794": "RES", "6795": "Ġhandler", "6796": "ĠMonday", "6797": "Ġsun", "6798": "Styles", "6799": "ously", "6800": "Ġĉ", "6801": "vest", "6802": "Display", "6803": "(y", "6804": "atically", "6805": "Ġpredict", "6806": "ying", "6807": "Ġsometimes", "6808": "Ġdrink", "6809": "Ġbul", "6810": "ifications", "6811": ".insert", "6812": ".reg", "6813": "Ġtests", "6814": "Alignment", "6815": "Ġalleg", "6816": "Ġattribute", "6817": "ĠNote", "6818": "Ġmyself", "6819": "arts", "6820": "Now", "6821": "Ġinteresting", "6822": "lients", "6823": "Ġpopulation", "6824": "ĠCalifornia", "6825": "\"I", "6826": "Ġgreater", "6827": "uesday", "6828": "Ġthous", "6829": "Ġcosts", "6830": "Ġlaunch", "6831": "\\Http", "6832": "ker", "6833": "band", "6834": "ĠPlay", "6835": "Ġband", "6836": ".shape", "6837": "esome", "6838": "article", "6839": ".rf", "6840": "Ġwer", "6841": "Ã¡s", "6842": "embers", "6843": "usr", "6844": "BA", "6845": "ican", "6846": "ett", "6847": "validate", "6848": "ulti", "6849": "Ġimmediately", "6850": "zer", "6851": "Ġfigure", "6852": "oes", "6853": "eller", "6854": "ircle", "6855": "ĠSign", "6856": ".db", "6857": "Ġrank", "6858": "Bytes", "6859": "Ġprojects", "6860": "_rec", "6861": "ULAR", "6862": "API", "6863": "ĠLine", "6864": "Port", "6865": "Ġpoll", "6866": "Ġgiving", "6867": "idence", "6868": "Ġplot", "6869": "icial", "6870": "Ġwarrant", "6871": "ITION", "6872": "ĠDouble", "6873": "Ġbillion", "6874": "gorithm", "6875": "Ġequipment", "6876": "DATE", "6877": "Ġ@\"", "6878": "EE", "6879": "Ġple", "6880": "iation", "6881": "Ġheaders", "6882": "Ġproced", "6883": ".ComponentModel", "6884": "ĠObama", "6885": "Ġpa", "6886": "ĠBest", "6887": "imately", "6888": ".getString", "6889": ".\\", "6890": "mploy", "6891": "Ġraw", "6892": "_block", "6893": "undred", "6894": ".GroupLayout", "6895": "Ġbrought", "6896": "NSString", "6897": "throw", "6898": "created", "6899": ".New", "6900": "_view", "6901": "CP", "6902": "eps", "6903": "Op", "6904": "Ġgratis", "6905": "Ġ'\"", "6906": "Ġinterview", "6907": "Ġpartial", "6908": "Ġaria", "6909": "bing", "6910": "Author", "6911": "Book", "6912": "ĠPat", "6913": "uman", "6914": "Users", "6915": "plus", "6916": "ĠDirect", "6917": "venue", "6918": "alpha", "6919": "UCCESS", "6920": "ĠCall", "6921": "imated", "6922": "Ġremain", "6923": "Ġanti", "6924": "ĠLondon", "6925": "Ġsafety", "6926": "POSE", "6927": "oles", "6928": "controller", "6929": "Byte", "6930": "ĠCourt", "6931": "ĠPhil", "6932": "ĠAssoci", "6933": "ena", "6934": "_STR", "6935": "coin", "6936": "reshold", "6937": "Ġbatch", "6938": "_Click", "6939": "entication", "6940": "enty", "6941": "Ġbeginning", "6942": "Ġzero", "6943": "ĠConvert", "6944": "Ġterr", "6945": "Ġpaid", "6946": "Ġincreased", "6947": "catch", "6948": "-size", "6949": "activity", "6950": "equals", "6951": "Ġqueue", "6952": "Ġ\"'", "6953": "ĠInternational", "6954": "ĠfÃ¼r", "6955": "ursday", "6956": "Ġscient", "6957": "allow", "6958": "axis", "6959": "Ġappropri", "6960": "edge", "6961": "Ġidx", "6962": "Success", "6963": "entifier", "6964": ":\\", "6965": "xis", "6966": "Ġmaximum", "6967": "arks", "6968": "Ġbirth", "6969": "(index", "6970": "Ġmaybe", "6971": ".py", "6972": "files", "6973": "Ġlimited", "6974": "_check", "6975": "look", "6976": "plies", "6977": "Ġmovement", "6978": "'].", "6979": "Ġbroad", "6980": "ĠBE", "6981": "ĠUnityEngine", "6982": ".cpp", "6983": "ĠEvery", "6984": "Admin", "6985": "Ġfans", "6986": "pared", "6987": "ĊĠĠĠĠĊ", "6988": "Ġforeign", "6989": "Ġpan", "6990": "Ġtour", "6991": "ĠOrder", "6992": "Ġmoving", "6993": "Ġauf", "6994": "Call", "6995": "cb", "6996": "ÅŁ", "6997": "ventory", "6998": "ĠSql", "6999": "Ġfully", "7000": "ClickListener", "7001": "WORD", "7002": "Ġannounced", "7003": "Ġagreed", "7004": "rie", "7005": "Ġearn", "7006": "_link", "7007": ".array", "7008": "(text", "7009": "Ġmaterials", "7010": ",p", "7011": "ffff", "7012": "vg", "7013": "ĠÂ©", "7014": "Ġunless", "7015": "ajax", "7016": "LOG", "7017": "Ġsexual", "7018": "Ġ\\\"", "7019": "-time", "7020": "Ġcoach", "7021": "Ġsupported", "7022": "Ġphotos", "7023": "iform", "7024": ".Create", "7025": ")]", "7026": "rier", "7027": "Ġdialog", "7028": "aver", "7029": "ige", "7030": ")+", "7031": "_idx", "7032": ":[", "7033": "_min", "7034": "ĠCong", "7035": "Ġpressure", "7036": "Ġteams", "7037": "Sign", "7038": "begin", "7039": "rian", "7040": "NESS", "7041": "LS", "7042": "Ġimprove", "7043": "ĠSunday", "7044": "Ġdefinition", "7045": "iger", "7046": "rollers", "7047": "Ġthinking", "7048": "Template", "7049": "-F", "7050": "Ġemerg", "7051": "plates", "7052": "ĠUSA", "7053": ".setState", "7054": "ĠAlso", "7055": "rev", "7056": "Ġenable", "7057": "ĠCO", "7058": "PECT", "7059": "Ġconcept", "7060": ")-", "7061": "ĠâĢ¢", "7062": "Ġsets", "7063": "Ġmeaning", "7064": "emon", "7065": "ĠCons", "7066": "cmp", "7067": "eder", "7068": "anned", "7069": "icensed", "7070": "ĠSuper", "7071": "Ġdaily", "7072": "Ġmulti", "7073": "_u", "7074": "Ġchalleng", "7075": "_mode", "7076": "ĠPromise", "7077": "Ġstrict", "7078": "jo", "7079": "inton", "7080": "(list", "7081": "Only", "7082": ">{", "7083": "Ġvehicle", "7084": "íķ", "7085": "ĠPlayer", "7086": "ĠDel", "7087": "Ġpool", "7088": ".url", "7089": "nesday", "7090": "Local", "7091": "Ġorganization", "7092": "render", "7093": "ĠApplication", "7094": "Ġsummer", "7095": "expected", "7096": "NA", "7097": "Ġrap", "7098": "_obj", "7099": "Ġsurface", "7100": "ĠPUR", "7101": "Ġvariables", "7102": "(message", "7103": "Ġopin", "7104": ".back", "7105": "Ð°Ð½", "7106": "Ġworkers", "7107": "vm", "7108": "Co", "7109": "ughter", "7110": "Ġmaster", "7111": "Ġ\"\",", "7112": "Ġstories", "7113": ".User", "7114": "Ġcelebr", "7115": "inese", "7116": "BS", "7117": "ĠCommand", "7118": "ashboard", "7119": "Ġog", "7120": "kg", "7121": ".image", "7122": ".style", "7123": "Ġsteps", "7124": "ĠBen", "7125": "(args", "7126": "ĠPerson", "7127": ",y", "7128": "Ġofficials", "7129": "Ġskills", "7130": "vc", "7131": "Ġbuilder", "7132": "Ġgar", "7133": "Account", "7134": "ĠAuth", "7135": "ĠAT", "7136": "nn", "7137": ".Int", "7138": "SSERT", "7139": "Ġeffective", "7140": "LETE", "7141": "Ġtools", "7142": "ARD", "7143": "Ġdigital", "7144": "Double", "7145": "ĠFind", "7146": "RC", "7147": "Ġinline", "7148": "/r", "7149": "ARAM", "7150": "ASK", "7151": "Ġintent", "7152": "aight", "7153": "_addr", "7154": "Ġrequests", "7155": ".first", "7156": "Ġdebug", "7157": "Ġspent", "7158": "ÅĽ", "7159": "Ġprincip", "7160": "Logger", "7161": "cludes", "7162": ".use", "7163": "Ġsurv", "7164": "media", "7165": "ĠFebruary", "7166": "ĠMac", "7167": "Ġmissing", "7168": "Ġwife", "7169": "Ġtalking", "7170": "ĠMake", "7171": "Ġcart", "7172": "Ġlocated", "7173": "Enc", "7174": "-a", "7175": "chron", "7176": "Ġcards", "7177": "Ġguy", "7178": "Ġpers", "7179": "ĠYes", "7180": "atever", "7181": "ĠAng", "7182": "olar", "7183": "ĠEven", "7184": "Ġaccur", "7185": "ĠPower", "7186": "ĠGold", "7187": "clear", "7188": "Process", "7189": "Ġrecords", "7190": "Ġkilled", "7191": ".clear", "7192": "ĠWARRANTIES", "7193": "Ġpurpose", "7194": "panel", "7195": "JECT", "7196": "ÃŃa", "7197": "Ġexerc", "7198": "WS", "7199": "/L", "7200": ".exports", "7201": "Ġ___", "7202": "Ġsin", "7203": "Servlet", "7204": "ĠdÃ©", "7205": ".delete", "7206": "roke", "7207": "Sl", "7208": "ugh", "7209": "ears", "7210": "Ġpointer", "7211": "Ġhop", "7212": "allery", "7213": "Ġobs", "7214": "covery", "7215": "ĉchar", "7216": "ĉĉĉĉĉĉĉĉĉĉ", "7217": "ĉdef", "7218": "ocity", "7219": "itchen", "7220": "ulations", "7221": "ĠFIT", "7222": "Ġ).", "7223": "straints", "7224": "vention", "7225": "Ġrequires", "7226": "ĠOper", "7227": "ME", "7228": "OUNT", "7229": "allet", "7230": "Ġnorm", "7231": "IRE", "7232": "exas", "7233": "Ġprograms", "7234": "Ġweak", "7235": "'.$", "7236": "uing", "7237": "ĉĠĠĠĠĠĠĠ", "7238": "Ġmil", "7239": "Ġfirm", "7240": "initely", "7241": "_VALUE", "7242": "apse", "7243": "atisf", "7244": "Ġdemand", "7245": "_mod", "7246": "Ġdescribed", "7247": "Ġplaces", "7248": "VID", "7249": "Ġalone", "7250": "Ġexport", "7251": "Ġvec", "7252": "ĠMax", "7253": "Ġactivities", "7254": "ictures", "7255": "gener", "7256": "Ġma", "7257": "Ĥ¬", "7258": "Ġexpression", "7259": "Callback", "7260": "_content", "7261": "ĠMost", "7262": "Ġtesting", "7263": "EC", "7264": "CHANT", "7265": "Ġadjust", "7266": ".Threading", "7267": "(ctx", "7268": "Ġagree", "7269": "ighest", "7270": "Ġui", "7271": "ĠLaw", "7272": ".Y", "7273": "><?", "7274": "Ġpod", "7275": "-lg", "7276": "Ġdescribe", "7277": "ĠEuropean", "7278": "-sh", "7279": "ĠPURPOSE", "7280": "ORY", "7281": "Ġconvers", "7282": "ĠIlluminate", "7283": "ĠAv", "7284": "(ch", "7285": "?\"", "7286": "chen", "7287": "ima", "7288": "Document", "7289": "Ġoperations", "7290": "win", "7291": "ĉfunction", "7292": ".Image", "7293": "Ġscen", "7294": "/h", "7295": "ĠSC", "7296": "Ġexplo", "7297": ":%", "7298": "NAME", "7299": "(var", "7300": "Ġdirector", "7301": "ONG", "7302": "Ġyield", "7303": "Ġfeet", "7304": "ĠSearch", "7305": "ĠIl", "7306": "Ġrestaur", "7307": "duc", "7308": "Ġinteger", "7309": "Ġhighly", "7310": "checked", "7311": "ĠPARTIC", "7312": "ERCHANT", "7313": "ï¼ī", "7314": "Ġoptim", "7315": "Queue", "7316": "ĠLI", "7317": "itation", "7318": "Ġtransport", "7319": "ission", "7320": "fill", "7321": "usion", "7322": "ĠĠĠĠĠĠĠĠĠĠĠĠĠĠĠĠĠĠĠĠĠĠĠĠĠĠĠĠĠĠ", "7323": "ĉbool", "7324": "-th", "7325": "upt", "7326": "Ġessential", "7327": "anted", "7328": "Ġbenefits", "7329": "ĉS", "7330": "iki", "7331": "Ġgirls", "7332": "iced", "7333": "buffer", "7334": "]+", "7335": "Ġsocket", "7336": "Ġprices", "7337": "ĠFre", "7338": "Ġsat", "7339": "Ġwood", "7340": "MenuItem", "7341": "ARG", "7342": "ĠAdmin", "7343": "OWN", "7344": "dk", "7345": "Ġreset", "7346": "Ġforms", "7347": "ĠÐ¸", "7348": "ĠTuesday", "7349": "ĠInitialized", "7350": "_train", "7351": "orary", "7352": "ategor", "7353": "Ġdt", "7354": "Total", "7355": "construct", "7356": "ilies", "7357": "Ġguys", "7358": "ÐµÑĢ", "7359": "Ġinstruction", "7360": "yled", "7361": "Ġinternet", "7362": "etadata", "7363": "ady", "7364": "faces", "7365": "jection", "7366": "ĠJack", "7367": "Ġrect", "7368": "[-", "7369": "ĠLeg", "7370": "Ġdevices", "7371": "OC", "7372": "oration", "7373": "ertain", "7374": "Ġguard", "7375": "ostream", "7376": "Ġenum", "7377": ".layout", "7378": "voke", "7379": "ĠOk", "7380": "Home", "7381": "(tr", "7382": "ETH", "7383": "Ġdelay", "7384": "Ġpurchase", "7385": "dc", "7386": "Ġaren", "7387": "_once", "7388": "ĉĉĉĉĊ", "7389": "ror", "7390": "draw", "7391": ".run", "7392": "(model", "7393": "Timeout", "7394": "lik", "7395": "ĠArg", "7396": ".en", "7397": "Ġfish", "7398": "cpy", "7399": "_fe", "7400": "ERCHANTABILITY", "7401": "(X", "7402": "_output", "7403": "??", "7404": "Ġjo", "7405": "andard", "7406": "Ġdoll", "7407": "errors", "7408": "_base", "7409": "ĠPARTICULAR", "7410": "Ġleader", "7411": "Ġcompar", "7412": "Ġdoub", "7413": "ĠVis", "7414": "StackTrace", "7415": "-C", "7416": "ĠStud", "7417": "stitute", "7418": "More", "7419": "ĠDescription", "7420": "WARE", "7421": "ads", "7422": "ĠÐº", "7423": "bind", "7424": "=self", "7425": "employ", "7426": "[n", "7427": ".all", "7428": "-B", "7429": "&&", "7430": "alm", "7431": "Ġculture", "7432": "house", "7433": "Ġsuffer", "7434": "Ġ'%", "7435": "Ġstraight", "7436": "ĠStar", "7437": "udo", "7438": "Ġded", "7439": "ĠCOM", "7440": "Ġconfirm", "7441": "ĠGood", "7442": ".sc", "7443": "________________", "7444": "DR", "7445": "Configuration", "7446": "DateTime", "7447": "Ġadvert", "7448": "Ġcouldn", "7449": "async", "7450": "stack", "7451": "Kit", "7452": "Ġhous", "7453": "Ġmechan", "7454": "rate", "7455": "Ġaudio", "7456": "ĉcout", "7457": "cores", "7458": "Ġspot", "7459": "Ġincreasing", "7460": "Ġ##", "7461": ")))", "7462": "points", "7463": "Ġcompared", "7464": "lig", "7465": "Ġbehavior", "7466": "ĠBY", "7467": "ĠAtt", "7468": "craft", "7469": "headers", "7470": "ete", "7471": "endregion", "7472": "Ġdetail", "7473": "ULE", "7474": "ĠCommon", "7475": "ĉprotected", "7476": "ston", "7477": "ĠFITNESS", "7478": "Ġfresh", "7479": ".example", "7480": "berg", "7481": "Ġmoved", "7482": "ĉe", "7483": "ĠSaturday", "7484": "Ġpayload", "7485": "Äĩ", "7486": "Ġbey", "7487": "urer", "7488": "<script", "7489": "Ġsymbol", "7490": "Ġassum", "7491": "Ġpul", "7492": "Effect", "7493": "Ġhundred", "7494": "Tool", "7495": "aked", "7496": "connection", "7497": "Ġvoice", "7498": "Ġpd", "7499": "Ġtransaction", "7500": "Ġlinks", "7501": "Err", "7502": "ĠIndian", "7503": "TC", "7504": "atalog", "7505": "ni", "7506": "sign", "7507": "<<\"", "7508": "ji", "7509": "ya", "7510": "Ġdemonstr", "7511": "ulated", "7512": ".St", "7513": "Ġinstit", "7514": "Ġboost", "7515": "Ġcells", "7516": "olic", "7517": ".Pro", "7518": ":</", "7519": "EventListener", "7520": "ifying", "7521": "ĠDi", "7522": "orrow", "7523": ".execute", "7524": "Ġcollege", "7525": "Your", "7526": "Ġlargest", "7527": ".dis", "7528": "Ġqui", "7529": "Ġindividuals", "7530": "_buffer", "7531": "Ġng", "7532": "SA", "7533": "ĠControl", "7534": "Ġsing", "7535": "Ġsuit", "7536": "ĠĠĠĠĉ", "7537": "SG", "7538": "Ġjump", "7539": "Ġsmart", "7540": "oma", "7541": "ĠExp", "7542": "Ġ'-", "7543": "Ġassist", "7544": "Ġsuccessfully", "7545": "sys", "7546": "ĠCre", "7547": "_ref", "7548": "ĠThursday", "7549": "Ġbur", "7550": "ĠÐ´", "7551": "Ġbeyond", "7552": "Ġnodes", "7553": "Details", "7554": "inct", "7555": "ĠJames", "7556": "Ġaffect", "7557": "exception", "7558": "Ġtypeof", "7559": "-se", "7560": "Ġfetch", "7561": "`,", "7562": "Ġcrusher", "7563": "}.", "7564": "ĠBO", "7565": "Show", "7566": "Ġrates", "7567": "Ġbon", "7568": "-icon", "7569": "ĠMedia", "7570": "RESS", "7571": "ĠValid", "7572": "Ġfuck", "7573": "acks", "7574": "Ġstudies", "7575": "Me", "7576": "Ġowners", "7577": "}else", "7578": "Ġgrowing", "7579": "Variable", "7580": "ĠBel", "7581": ".random", "7582": "vement", "7583": "onym", "7584": "(F", "7585": "ĠFALSE", "7586": "Ġtorch", "7587": "(row", "7588": "igo", "7589": "structure", "7590": "Ġcertainly", "7591": "Dep", "7592": "ĠGreen", "7593": "question", "7594": "Ġadding", "7595": "ĠDevelop", "7596": "_def", "7597": "Ġmach", "7598": "=%", "7599": "ĉĉĠ", "7600": "conds", "7601": "Project", "7602": "Ġreject", "7603": "ĠÎ", "7604": "Ġpoor", "7605": "Ġaware", "7606": "ĠBuild", "7607": "ĠBritish", "7608": "ĠNE", "7609": "Ġnumer", "7610": "rees", "7611": "claim", "7612": "Ġmock", "7613": "Ġom", "7614": "Ġscre", "7615": "OLD", "7616": ".pl", "7617": "eler", "7618": "Ġcorrespond", "7619": "_HE", "7620": "Ġbinary", "7621": "_order", "7622": "ĠSQL", "7623": "Ġadvant", "7624": "Ġprev", "7625": ".[", "7626": ".assertEqual", "7627": "plier", "7628": "arp", "7629": "Ġclosed", "7630": "Ġencour", "7631": "ĠQString", "7632": "aud", "7633": "Ġdeveloped", "7634": "Ġpermission", "7635": ".debug", "7636": "operator", "7637": "Ġsym", "7638": "atively", "7639": "Ã©e", "7640": "-color", "7641": "ĠGET", "7642": "ky", "7643": "Ġalthough", "7644": "_request", "7645": "_element", "7646": "................", "7647": "_DATA", "7648": "Ġamazing", "7649": "Ġsb", "7650": "ĠDefault", "7651": "Events", "7652": "Ġfailure", "7653": "acle", "7654": "Properties", "7655": "Ġdream", "7656": "Ġdistr", "7657": "Ġau", "7658": "Ġgenerated", "7659": "ĠTeam", "7660": "USE", "7661": "Ġincome", "7662": "Ġeye", "7663": "_not", "7664": "\"],", "7665": "_form", "7666": "Support", "7667": "orders", "7668": ".Print", "7669": "ville", "7670": "ĠWednesday", "7671": "olver", "7672": "Ġoppos", "7673": "isation", "7674": "ola", "7675": "Close", "7676": "<p", "7677": "_width", "7678": "Invalid", "7679": "xb", "7680": "Ġstrugg", "7681": "_action", "7682": "Ġtxt", "7683": "ĠPath", "7684": "alar", "7685": "ĠMERCHANTABILITY", "7686": "service", "7687": "ĠMichael", "7688": "ableView", "7689": "Debug", "7690": "okes", "7691": "She", "7692": "Ġguess", "7693": "ĠJava", "7694": "_PATH", "7695": "Ġparticularly", "7696": "ĠII", "7697": "Ġdomain", "7698": "Ġreduce", "7699": "-left", "7700": "real", "7701": "Ġappears", "7702": "Ġcomo", "7703": "ĠUnit", "7704": "ĠGovern", "7705": "ali", "7706": "allel", "7707": "ĠJew", "7708": "_I", "7709": "Ġcos", "7710": ".color", "7711": "ĠGlobal", "7712": "Ġtele", "7713": "ben", "7714": "_trans", "7715": "Ġreasons", "7716": "Ġemb", "7717": "ensity", "7718": "lines", "7719": "omin", "7720": "Screen", "7721": "Ð°ÑĤ", "7722": "pects", "7723": "clip", "7724": "foo", "7725": "rent", "7726": "Ġaf", "7727": "Ġdanger", "7728": "iling", "7729": "Names", "7730": "Our", "7731": "Ġdistribution", "7732": "While", "7733": "SL", "7734": "Write", "7735": "Ġgoto", "7736": "Ġcolors", "7737": "Ġpowerful", "7738": "kin", "7739": "Ġdepth", "7740": "ercial", "7741": "ĠCongress", "7742": "ĠMarket", "7743": "Db", "7744": "under", "7745": "ĠLast", "7746": "ÃŁ", "7747": "greg", "7748": "Ġposts", "7749": "_URL", "7750": "otos", "7751": "Don", "7752": "Ġmicro", "7753": "Ġarrest", "7754": "Ð¿", "7755": "Ġ(@", "7756": "ĠHot", "7757": "ĠIndex", "7758": ";&", "7759": "#!", "7760": "ĠNor", "7761": "ĠCap", "7762": "-(", "7763": "Ġinterested", "7764": "pear", "7765": "Ġrent", "7766": "Ġalbum", "7767": "olicy", "7768": ".lang", "7769": ".trans", "7770": ".format", "7771": "phere", "7772": "Ġaxis", "7773": "ĠBusiness", "7774": "ersistence", "7775": "urr", "7776": "Ġminimum", "7777": "endor", "7778": "ĠSD", "7779": "ĠInternet", "7780": "Exp", "7781": "iverse", "7782": "MM", "7783": "Ġobvious", "7784": "Ġbasis", "7785": "Ġscience", "7786": "Ġbudget", "7787": "izations", "7788": "PA", "7789": "Ġflags", "7790": "pret", "7791": "LOCK", "7792": "Ġvariety", "7793": "Ġtruth", "7794": "dt", "7795": "Ġgone", "7796": "Ġbattle", "7797": "<std", "7798": "ĠSil", "7799": "rf", "7800": "uda", "7801": "Ġerot", "7802": "ĠCam", "7803": "Ġstation", "7804": "Ġ'</", "7805": "cheme", "7806": "ĠSun", "7807": "Ġfinished", "7808": "Ġshop", "7809": "ĠKore", "7810": "Ġeight", "7811": "_REG", "7812": "ND", "7813": ">,", "7814": "\"><?", "7815": "(num", "7816": "ĉinline", "7817": "Transaction", "7818": ".On", "7819": "Ġmail", "7820": "rey", "7821": "results", "7822": "Ġnav", "7823": "IMIT", "7824": "_ids", "7825": "Make", "7826": "Modal", "7827": "ĠLOG", "7828": "ĠSur", "7829": "Ġinstanceof", "7830": "Ġoverall", "7831": "ĠInformation", "7832": "Ġconstruction", "7833": "_FILE", "7834": "but", "7835": "Ġmedic", "7836": "Ġduration", "7837": "itness", "7838": "agent", "7839": "AV", "7840": "Ġseven", "7841": "olf", "7842": "Ġcalling", "7843": "Ġans", "7844": "throws", "7845": "orizontal", "7846": "ĠuseState", "7847": ".fl", "7848": "ĠStatus", "7849": "ĠOnline", "7850": "RR", "7851": "ĠRich", "7852": "ĠHill", "7853": "Ġbrain", "7854": "Ġfollowed", "7855": "emic", "7856": "Ġslight", "7857": "Ġinsurance", "7858": ".Array", "7859": "Ġabstract", "7860": "ĠSum", "7861": "redirect", "7862": "owner", "7863": "(msg", "7864": "ĠClinton", "7865": "Non", "7866": "ĉex", "7867": "Ġvolume", "7868": "ĠEventArgs", "7869": "-L", "7870": "ĠDim", "7871": "ĠMart", "7872": "Ġcursor", "7873": "Ġimplementation", "7874": "urred", "7875": "Ġlarger", "7876": "'+", "7877": ".transform", "7878": "Ġupload", "7879": "ĠĠĠĠĠĠĠĠĠĠĠĠĠĠĠĠĠĠĠĠĠĠĠĠĠĠĠĠĠĠĠĠĠĠĠĠĠĠĠĠĠĠĠĠĠĠĠĠĠĠĠĠĠĠĠ", "7880": "Draw", "7881": "nel", "7882": "ĉfloat", "7883": "qrt", "7884": "ĠNetwork", "7885": "Ġtit", "7886": "Axis", "7887": ".android", "7888": "Ġcompleted", "7889": "Ġmur", "7890": "Ġcolumns", "7891": "xc", "7892": "Ġsupply", "7893": "iminal", "7894": "Ġspr", "7895": "================================================================", "7896": "Ġunits", "7897": "(u", "7898": "mi", "7899": "replace", "7900": "[key", "7901": "à¹", "7902": "antic", "7903": "Ġpayment", "7904": ",B", "7905": "ĠApple", "7906": "gin", "7907": "Required", "7908": "#+", "7909": "lands", "7910": "Ġsqu", "7911": "Ġfactor", "7912": "dec", "7913": "Ġstrength", "7914": "Ġboy", "7915": "Ġbalance", "7916": "Ġsources", "7917": "screen", "7918": "-top", "7919": "ĠAmazon", "7920": "Ġhidden", "7921": "ÐµÑĤ", "7922": "_client", "7923": "Ġeat", "7924": ".display", "7925": "ĠÂ»", "7926": "Ġtrigger", "7927": "anager", "7928": "Ġtro", "7929": "Ġclaims", "7930": "ford", "7931": "ĠCompany", "7932": "Ġgift", "7933": ",:", "7934": "_app", "7935": "handle", "7936": "Ġproduce", "7937": "/lib", "7938": "Ġ-*", "7939": "ĉset", "7940": "'];", "7941": "arc", "7942": "ander", "7943": "ĠEngine", "7944": "Ġattributes", "7945": "task", "7946": "<=", "7947": "(N", "7948": "Ġwarm", "7949": "which", "7950": "ĠFore", "7951": "agnost", "7952": "mys", "7953": "Ġtal", "7954": "ĠSal", "7955": "gi", "7956": "ĠPrint", "7957": "ĠTRUE", "7958": "ĠÐ¾", "7959": ".UI", "7960": "Ġflash", "7961": "roperty", "7962": ".location", "7963": "ĠMill", "7964": "bi", "7965": "contr", "7966": ".request", "7967": "ĠSam", "7968": "Ġnegative", "7969": "kit", "7970": "Ġsett", "7971": ".printStackTrace", "7972": "abe", "7973": "ĉi", "7974": "Ġburn", "7975": "Ġsociety", "7976": "Cache", "7977": "ĠSecurity", "7978": ".models", "7979": "ĠWARRANTY", "7980": "_up", "7981": "ceive", "7982": "Ġclients", "7983": ".Tr", "7984": "Ġproviding", "7985": "Ġrout", "7986": "material", "7987": "ĠSer", "7988": "ĠOffice", "7989": "FTWARE", "7990": "Ġ'$", "7991": "Ġfoc", "7992": "Ġexcell", "7993": "Ġcat", "7994": "normal", "7995": "Ġdetermine", "7996": "ĉuint", "7997": "Pane", "7998": "Ġemployees", "7999": "ĠTexas", "8000": "Ġtraff", "8001": "ĠReport", "8002": "anta", "8003": "ĠBox", "8004": "Ġdjango", "8005": "Ġpartner", "8006": "EB", "8007": "LINE", "8008": "Ġfeeling", "8009": "Ġcivil", "8010": "(float", "8011": "Sql", "8012": "Ġwouldn", "8013": ".init", "8014": ".left", "8015": "-v", "8016": "_level", "8017": "'}", "8018": "AF", "8019": "Ġloading", "8020": "ĠOnly", "8021": "Ġcookies", "8022": "ĠGl", "8023": "CO", "8024": "Ġstrategy", "8025": "('./", "8026": "Ġship", "8027": "poses", "8028": "Ġsignal", "8029": "Ġalpha", "8030": ".pop", "8031": "Radius", "8032": "Ġreplace", "8033": "_DIR", "8034": "counter", "8035": "bservable", "8036": "ela", "8037": "Weight", "8038": "hash", "8039": "bose", "8040": "fx", "8041": "ĠEmail", "8042": "Ġrefer", "8043": "localhost", "8044": "_RO", "8045": "iques", "8046": "Step", "8047": "Ġahead", "8048": "(View", "8049": "ĠServices", "8050": "ĠJson", "8051": "essor", "8052": "Ġpun", "8053": "Ġappropriate", "8054": "akers", "8055": "osen", "8056": "posing", "8057": "Ġagent", "8058": "fc", "8059": "Ġtransfer", "8060": "Ġinvalid", "8061": "ĠResearch", "8062": "Vertex", "8063": "Ġgay", "8064": "Ġjournal", "8065": "[x", "8066": "ĠWell", "8067": ".Tasks", "8068": "Spec", "8069": "Ġol", "8070": "Ġspend", "8071": "ĠAustralia", "8072": "Match", "8073": ".junit", "8074": "ĠĠĠĠĠĠĠĠĠĠĠĠĠĠĠĠĠĠĠĠĠĠĠĠĠĠĠĠĠĠĠĠĠĠĠĠĠ", "8075": "ĠMAX", "8076": "izable", "8077": "clusive", "8078": "_valid", "8079": "Ġquarter", "8080": "yan", "8081": "ĠEdit", "8082": "arden", "8083": "=new", "8084": "Ġfrag", "8085": "Bit", "8086": "zi", "8087": "aine", "8088": "udd", "8089": ".Object", "8090": "debug", "8091": "Ġcash", "8092": "_IM", "8093": "Ġeen", "8094": "Ġcommercial", "8095": "ĠVideo", "8096": "loader", "8097": "Ġfixed", "8098": "Ġapplications", "8099": "Ġ_,", "8100": "ĠRussia", "8101": "itect", "8102": "_(", "8103": "ĠBlock", "8104": "Ġsan", "8105": "ĠTom", "8106": "Ġperhaps", "8107": "Ġsig", "8108": "levant", "8109": "Ġcorpor", "8110": "ataset", "8111": "ronic", "8112": "xe", "8113": "Ġeth", "8114": "Some", "8115": "pop", "8116": "_OK", "8117": "Ġtend", "8118": ".Res", "8119": "_and", "8120": "Ġreviews", "8121": "Ġwild", "8122": "Ġdegree", "8123": ".O", "8124": ".objects", "8125": "_args", "8126": "nil", "8127": "Ġdisabled", "8128": "Parent", "8129": "Ġnotes", "8130": "(state", "8131": "istrict", "8132": "Ġlogging", "8133": ".IO", "8134": "ĠMal", "8135": "DM", "8136": "Ġxml", "8137": "ĠRobert", "8138": "elen", "8139": "layout", "8140": "fol", "8141": "']))", "8142": ",b", "8143": "ĠJer", "8144": "filename", "8145": "Ġfan", "8146": "ĠCustom", "8147": "=\"\"", "8148": "ĠDie", "8149": "Bundle", "8150": ".utils", "8151": "Ġtrip", "8152": "MB", "8153": "Ġsoft", "8154": "_MODE", "8155": "Ġapplicable", "8156": "Ġupper", "8157": "ERVER", "8158": "_al", "8159": "_LOG", "8160": "Here", "8161": "wp", "8162": "ĠServer", "8163": "ĠClient", "8164": "Ġchem", "8165": "Scroll", "8166": "Ġhighest", "8167": "ĠSelect", "8168": "Ġ\"@", "8169": "ĠWhy", "8170": "Sec", "8171": "heel", "8172": "Operation", "8173": "Ġconnected", "8174": "irmed", "8175": "Ġcitiz", "8176": "ĠChe", "8177": "Ġforces", "8178": "Ġwww", "8179": "Root", "8180": "ANCE", "8181": "Many", "8182": "icip", "8183": "rgan", "8184": "ĠTor", "8185": "ĠPress", "8186": "ĠMor", "8187": "-line", "8188": "uled", "8189": ">\\", "8190": "Ġthus", "8191": "ĠRegister", "8192": "hol", "8193": "ĠChinese", "8194": "Ġposted", "8195": "Ġmagn", "8196": "abilities", "8197": "Ġdisease", "8198": "Ġremains", "8199": "ĠProf", "8200": "-form", "8201": "Ġcin", "8202": "organ", "8203": "icate", "8204": "Ġstress", "8205": "]*", "8206": "Ġ----------------------------------------------------------------", "8207": "_context", "8208": "orry", "8209": "Ġdied", "8210": "mat", "8211": "Ġstarts", "8212": ".Message", "8213": "Ġruns", "8214": "Ġguide", "8215": "Ġwarranty", "8216": "entials", "8217": "dict", "8218": "ĠSize", "8219": "uler", "8220": "Ġresponsible", "8221": "_SET", "8222": "Ġcontaining", "8223": "ĠPrice", "8224": "||", "8225": "FS", "8226": "Ġemp", "8227": "_button", "8228": "(uint", "8229": "Ġsuff", "8230": "pth", "8231": "Ġdefinitely", "8232": "pute", "8233": "Ġmarketing", "8234": "ĠWH", "8235": "ĠSie", "8236": "+=", "8237": "OLOR", "8238": "Ġconsult", "8239": "Ġsigned", "8240": "Ġsequence", "8241": "lee", "8242": "Ġrequirements", "8243": "hy", "8244": "Express", "8245": "MT", "8246": "sey", "8247": "Ġult", "8248": "elligence", "8249": "Ġanaly", "8250": "Ġdress", "8251": "engine", "8252": "ĠGreat", "8253": "ĠAndroid", "8254": "ĠAlex", "8255": "mode", "8256": "Dictionary", "8257": ".Date", "8258": "VICE", "8259": "Ġfamilies", "8260": "ĠRussian", "8261": "ĠTimes", "8262": ".call", "8263": "$(", "8264": "Profile", "8265": "Ġfolder", "8266": "ches", "8267": "Ġlegis", "8268": "_row", "8269": "unes", "8270": "ÙĦ", "8271": "Ġ}).", "8272": "Assert", "8273": "agen", "8274": "ĠHand", "8275": "Iter", "8276": "Ġbiggest", "8277": "oreach", "8278": "Ġpolic", "8279": "Ġpermissions", "8280": "Ġshowed", "8281": "ĠElement", "8282": "Ġtopic", "8283": "âĢĶâĢĶ", "8284": "road", "8285": "ĠBank", "8286": "record", "8287": "Ġpartners", "8288": "ĠRef", "8289": "essions", "8290": "Ġassess", "8291": "UST", "8292": "ĠParty", "8293": "produ", "8294": "LC", "8295": "Ġul", "8296": ".form", "8297": "hide", "8298": "copy", "8299": "UTF", "8300": "ĠSOFTWARE", "8301": "čĊčĊčĊ", "8302": "ĠLin", "8303": "una", "8304": "ugar", "8305": "Ġadministration", "8306": "Ġopening", "8307": "Ġscan", "8308": "Ġcontinued", "8309": "component", "8310": ".sp", "8311": "Ġhappens", "8312": "ummy", "8313": "ĠPR", "8314": ".File", "8315": "ĠDownload", "8316": "Loading", "8317": "di", "8318": "Ġwaiting", "8319": "_ADD", "8320": "Tab", "8321": ".querySelector", "8322": "Ġeconomy", "8323": "ĠFrench", "8324": "txt", "8325": "Ġfant", "8326": "Holder", "8327": "SH", "8328": "Ġnumpy", "8329": "Ġstreet", "8330": "Ġmale", "8331": "\\Model", "8332": "anging", "8333": "ĠBill", "8334": "Ġpreviously", "8335": "BI", "8336": "ĠSecret", "8337": "Ġmist", "8338": "ĠField", "8339": "ups", "8340": "ĠProcess", "8341": "Ġkept", "8342": "ĠOT", "8343": "Ġtraditional", "8344": ".i", "8345": "amin", "8346": "Ġhelps", "8347": "Any", "8348": "origin", "8349": "ilters", "8350": "ju", "8351": "desc", "8352": "ĠAccount", "8353": "ktop", "8354": "olly", "8355": "Ġfs", "8356": "Ġê", "8357": "Ġut", "8358": "Ġcentral", "8359": "(test", "8360": ".An", "8361": "Ġsatisf", "8362": "GR", "8363": "ĠFull", "8364": "Ġheat", "8365": "iber", "8366": "Ġonto", "8367": "mos", "8368": "Schema", "8369": "Ġfactory", "8370": "\".$", "8371": "aws", "8372": "Statement", "8373": "(target", "8374": "ĉnew", "8375": ".be", "8376": "Ġguest", "8377": "Ġmal", "8378": "ARY", "8379": "Ġreached", "8380": "Ġmouse", "8381": "Ġchallenge", "8382": "ĉdouble", "8383": "ĠTem", "8384": "Ġterror", "8385": "Ġextract", "8386": "_TO", "8387": "Ġseparate", "8388": "Ġmir", "8389": "help", "8390": "Ġcapacity", "8391": "ĠProperty", "8392": "kan", "8393": "_create", "8394": "ĠLight", "8395": ".parent", "8396": "Ġunderstanding", "8397": "Ġeasier", "8398": "Ġ|=", "8399": "Ġenh", "8400": "Ġfat", "8401": "Ġprotest", "8402": "amm", "8403": "_AT", "8404": "-of", "8405": "ils", "8406": "ĠOh", "8407": "Ġpsych", "8408": "Ġ$.", "8409": "inds", "8410": "Ġrelative", "8411": "shop", "8412": "short", "8413": "ĠSand", "8414": "uestion", "8415": "Ġfear", "8416": ".context", "8417": "Ġschools", "8418": "Ġserve", "8419": "zone", "8420": "_db", "8421": "Ġmajority", "8422": "example", "8423": "Ġlang", "8424": "ĉĠĠ", "8425": "Register", "8426": "endo", "8427": "Ġprocessing", "8428": "_template", "8429": "-user", "8430": "Ġeg", "8431": "COM", "8432": "ĠBlue", "8433": "iro", "8434": "Ġremote", "8435": "ĠIT", "8436": "#!/", "8437": "Ġredistrib", "8438": "raz", "8439": "ĠSince", "8440": "ĠTur", "8441": "Background", "8442": "===", "8443": "Ġreflect", "8444": "Ġpros", "8445": "cmd", "8446": "Ġwhom", "8447": "Compat", "8448": "ĠAre", "8449": "Identifier", "8450": "ĠThom", "8451": "_port", "8452": "gu", "8453": "Ġmonitor", "8454": "rm", "8455": "Ġpatient", "8456": "verter", "8457": "Ġgain", "8458": "-ui", "8459": "Inst", "8460": "Ġdies", "8461": "Area", "8462": "_filter", "8463": "Ġgrat", "8464": "Ġreality", "8465": "ordinate", "8466": "olved", "8467": "Contact", "8468": "Ġcompliance", "8469": "_or", "8470": "ĠVar", "8471": "dl", "8472": "Ġappend", "8473": "GER", "8474": "(max", "8475": ".render", "8476": "Ġdynamic", "8477": "ordinates", "8478": "_options", "8479": "_column", "8480": "Ġbatter", "8481": "space", "8482": "La", "8483": "ĠSource", "8484": "/bin", "8485": "Ġdos", "8486": "ĠBoard", "8487": "ĠThread", "8488": "ĠAL", "8489": "(config", "8490": "ĠMer", "8491": "Ġmiles", "8492": "_header", "8493": "ETHOD", "8494": "izz", "8495": "Ġbenefit", "8496": "Ġintegr", "8497": "(current", "8498": "ulo", "8499": ".default", "8500": "ĠDiv", "8501": "Ġton", "8502": "oth", "8503": "ervation", "8504": "edom", "8505": "Ġbaby", "8506": "ceived", "8507": ".top", "8508": "riority", "8509": "ĠLocal", "8510": "riage", "8511": "Ġattacks", "8512": "Ġhospital", "8513": "Ġfemale", "8514": "ĠLogin", "8515": "ĠFlor", "8516": "Ġchain", "8517": "ashion", "8518": "Texture", "8519": "Save", "8520": "Ġfarm", "8521": ".contains", "8522": ".Test", "8523": "Ġknows", "8524": "Ġgenerally", "8525": "ipeline", "8526": "Ġmeant", "8527": "encia", "8528": "Ġnicht", "8529": "Ġcontents", "8530": "PM", "8531": "chedule", "8532": "(line", "8533": "CG", "8534": "job", "8535": "ĠReal", "8536": "uer", "8537": "firm", "8538": "ĠØ", "8539": "etro", "8540": "Ġspeech", "8541": "Ġthr", "8542": "foreach", "8543": "Ġwarn", "8544": "ĉl", "8545": "Ġheavy", "8546": "<li", "8547": "Ne", "8548": "Ġinvestigation", "8549": "Math", "8550": "-title", "8551": "Ġchurch", "8552": "Ġdespite", "8553": "chain", "8554": "Ġwhatever", "8555": "arian", "8556": "fn", "8557": "Ġmeta", "8558": "UFF", "8559": "Ġregarding", "8560": "_SUCCESS", "8561": "mes", "8562": "ĠIntent", "8563": "Ġresolve", "8564": "poss", "8565": "ira", "8566": "force", "8567": "oice", "8568": "Ã¢", "8569": "Ġpm", "8570": "Ġupdates", "8571": "Arr", "8572": "ĠÑ", "8573": "testing", "8574": "Ġtoward", "8575": "ntax", "8576": "ëĭ", "8577": "Ġlisten", "8578": "Ġgoals", "8579": "InstanceState", "8580": "Dr", "8581": "Ġrare", "8582": "Ġtrail", "8583": "Keys", "8584": "Cal", "8585": "Car", "8586": "ĠPeople", "8587": "ĉlocal", "8588": "classes", "8589": "Reference", "8590": ".forEach", "8591": "emb", "8592": "activ", "8593": "Ġprim", "8594": "redict", "8595": "Ġrad", "8596": ".Back", "8597": "Ġspread", "8598": "Ġclock", "8599": "Ġvir", "8600": "editor", "8601": "Ġefforts", "8602": "Ġbranch", "8603": "Ġindust", "8604": "Ġmotor", "8605": "Ġamb", "8606": "Ġdatetime", "8607": "Ġrencont", "8608": "ĠChristian", "8609": "ĠAmericans", "8610": "full", "8611": "Ġfmt", "8612": ".main", "8613": "Ġcaused", "8614": "_update", "8615": "ĠContent", "8616": "ATCH", "8617": "Ġbath", "8618": "ĠEach", "8619": "Ġradio", "8620": "achment", "8621": "uzz", "8622": "Submit", "8623": "Ġrestrict", "8624": "abin", "8625": "ĠLoad", "8626": "Ġextension", "8627": "Ġessay", "8628": "Ġhat", "8629": "aviour", "8630": "toBe", "8631": "\":[", "8632": "Ġoffered", "8633": "Ġvill", "8634": "(double", "8635": "bc", "8636": "_free", "8637": "ĠMiss", "8638": "ĠBer", "8639": "ĠLike", "8640": "Ġhelped", "8641": ".getName", "8642": "_AL", "8643": "Ġspirit", "8644": "ĠApache", "8645": "ws", "8646": "Ġtherefore", "8647": "(params", "8648": "_img", "8649": "Ġpeace", "8650": "Ġincor", "8651": "ĠEXPECT", "8652": "Ġminor", "8653": "ipes", "8654": "ĉdata", "8655": "selector", "8656": "city", "8657": "trie", "8658": ".base", "8659": "_frame", "8660": "Ġopened", "8661": "/json", "8662": "LY", "8663": "nu", "8664": ".De", "8665": "tf", "8666": "margin", "8667": ".Parse", "8668": "Ġpi", "8669": "Ġeq", "8670": "bd", "8671": "Fields", "8672": "ĠTree", "8673": "Ġban", "8674": "istan", "8675": "ĊĠĠĠĠĠĠĠĠĊ", "8676": "ĉgl", "8677": "Ġproduced", "8678": "system", "8679": "Mark", "8680": "_hash", "8681": "Ġbg", "8682": "Ġconstit", "8683": "ĠLeague", "8684": "Ġmission", "8685": "_format", "8686": "clusion", "8687": "!\"", "8688": "Ð·", "8689": "break", "8690": "ĉswitch", "8691": "Ġther", "8692": "Transform", "8693": "Ġfootball", "8694": "-link", "8695": "route", "8696": ".auth", "8697": "Ġbag", "8698": "overs", "8699": "Ġenabled", "8700": "Ġrac", "8701": "(I", "8702": "CR", "8703": "ancing", "8704": "Ġmanaged", "8705": "_q", "8706": "NGTH", "8707": "Ġmac", "8708": "ĠAuto", "8709": "amente", "8710": "Ġ'',", "8711": ".Append", "8712": "Ġpin", "8713": ".item", "8714": "acking", "8715": "Ġoccas", "8716": "person", "8717": "Ġti", "8718": ".Reg", "8719": "Ġhaven", "8720": "Ġglass", "8721": "Ġ\"</", "8722": "ĠSimple", "8723": "Print", "8724": "Ġsurround", "8725": "NO", "8726": "ĠĠĠĠĠĠĠĠčĊ", "8727": "ĠMany", "8728": "Ġ\"_", "8729": "Ġweekend", "8730": "Ġsomew", "8731": ".params", "8732": "small", "8733": "ATED", "8734": "Ġplugin", "8735": "fields", "8736": "ĠInitialize", "8737": "oon", "8738": "atile", "8739": "ye", "8740": "Ġvous", "8741": "LAG", "8742": "Ġolder", "8743": "Ġgam", "8744": "Ġextremely", "8745": "Ġhet", "8746": "enum", "8747": "ĠSET", "8748": "xff", "8749": "Ġtimer", "8750": "/index", "8751": "Ġcritical", "8752": "Rows", "8753": "_argument", "8754": "Ġexecute", "8755": "Ġshowing", "8756": ".xml", "8757": "-list", "8758": "Role", "8759": "typename", "8760": "_method", "8761": "that", "8762": "cher", "8763": "ĠâĨ", "8764": "XT", "8765": "Ġthousands", "8766": "ĉn", "8767": "Ġresp", "8768": "_price", "8769": "olut", "8770": "Ag", "8771": "ĠTwo", "8772": "Ġbecomes", "8773": "Ġhus", "8774": ".Use", "8775": "theme", "8776": "urb", "8777": "erialize", "8778": "ARN", "8779": "Ġlose", "8780": "Lower", "8781": "Ġvel", "8782": "Ġdefense", "8783": "condition", "8784": "Ġbes", "8785": "Ġdry", "8786": "Ġscroll", "8787": ".Show", "8788": "IEL", "8789": "Ð¾ÑĢ", "8790": "ĠRest", "8791": "Where", "8792": "oods", "8793": "ĠJes", "8794": "Ġwire", "8795": "_INFO", "8796": "Ġstrings", "8797": "gment", "8798": "Ġmatches", "8799": "Ġelectric", "8800": "Ġexcellent", "8801": "ĠCouncil", "8802": "idade", "8803": "Ġwx", "8804": "push", "8805": "_entry", "8806": "Ġtasks", "8807": "Ġrich", "8808": "sa", "8809": "ĠSmith", "8810": "UNCTION", "8811": "Pointer", "8812": "pective", "8813": "Ġwidget", "8814": "ista", "8815": "Ġagency", "8816": "Ġsich", "8817": "ologies", "8818": "Ġtrial", "8819": "alysis", "8820": ".check", "8821": "ARK", "8822": "ĠonChange", "8823": "about", "8824": "',$", "8825": "(val", "8826": "Ġplaced", "8827": "_NO", "8828": "Ġdan", "8829": ".equal", "8830": "ĉĠĠĠĠĠ", "8831": "Ġweather", "8832": ".game", "8833": "Ġdestination", "8834": "_USER", "8835": "iece", "8836": "Ġprovider", "8837": ".last", "8838": "plex", "8839": "Note", "8840": "/js", "8841": "ĠpÃ¥", "8842": "Ġplanning", "8843": "attribute", "8844": "PRO", "8845": "atches", "8846": "Ġ<-", "8847": "Ġseeing", "8848": "Ġcancel", "8849": "_ind", "8850": ".keys", "8851": "Ġvisual", "8852": "ĠCurrent", "8853": "ĠCollege", "8854": "ĠRock", "8855": "Ġagreement", "8856": "ĠStore", "8857": "oving", "8858": "Ġcorner", "8859": "ampions", "8860": "ISE", "8861": "Fin", "8862": "Ġprotection", "8863": "Ġfi", "8864": "Play", "8865": "plugin", "8866": ")}", "8867": ".frame", "8868": "-z", "8869": "Ġtransition", "8870": "igin", "8871": "Ġcandidate", "8872": "ĠUnion", "8873": "_values", "8874": "(map", "8875": "cle", "8876": "Ġtrend", "8877": "wide", "8878": "aren", "8879": "Loc", "8880": "UTH", "8881": "ĠBay", "8882": "Ġsmaller", "8883": "ius", "8884": "well", "8885": "Ġcriminal", "8886": "Ġconflic", "8887": "bert", "8888": "_INT", "8889": "Ġinvestment", "8890": "custom", "8891": "ĠSession", "8892": "_write", "8893": "ania", "8894": "ĠMass", "8895": "_EQ", "8896": "_NOT", "8897": "Ġviolence", "8898": "Argument", "8899": "_email", "8900": "Ġbelong", "8901": "_function", "8902": "Ġenemy", "8903": "ema", "8904": "ĠAddress", "8905": ".empty", "8906": "Ġinner", "8907": "ĠContact", "8908": "Loader", "8909": "<input", "8910": "ĠCA", "8911": "lot", "8912": "Ġpictures", "8913": "ĠSupport", "8914": "_names", "8915": "Layer", "8916": "ĠClick", "8917": "Sum", "8918": "Ã¦", "8919": "ĠLook", "8920": "uous", "8921": "Lib", "8922": "Flags", "8923": "team", "8924": "EP", "8925": "hat", "8926": "override", "8927": "apsed", "8928": "Ġlabels", "8929": "quis", "8930": "ĠStream", "8931": "_device", "8932": "ĠCommit", "8933": "(root", "8934": "\"}", "8935": ".isEmpty", "8936": "ĉM", "8937": "Ġangle", "8938": "ĠBecause", "8939": "%%%%%%%%", "8940": "Ġaim", "8941": "Ġstick", "8942": "stmt", "8943": "agraph", "8944": "answer", "8945": "Ġclin", "8946": "ĠIsl", "8947": ".ext", "8948": "ĠINT", "8949": "Ġstyles", "8950": "Ġborn", "8951": "Ġscr", "8952": "Ġexpand", "8953": "Ġraised", "8954": "TextBox", "8955": "ILL", "8956": "------------------------------------------------", "8957": "HTTP", "8958": ">)", "8959": "_char", "8960": "resource", "8961": "Ġepisode", "8962": "Ġ'_", "8963": "ĠEs", "8964": "ĠEarth", "8965": "ÂłÂł", "8966": "UPDATE", "8967": "ĠSou", "8968": "uis", "8969": "types", "8970": "Ġmas", "8971": "Ġfav", "8972": "Ġconstruct", "8973": "_rate", "8974": "eras", "8975": "roperties", "8976": "Ġexternal", "8977": "Ġapplied", "8978": "Ġprefix", "8979": "oted", "8980": "lers", "8981": "Ġcold", "8982": "ĠSP", "8983": "ĠChurch", "8984": "ĠOutput", "8985": "losed", "8986": "ificate", "8987": "operation", "8988": "herit", "8989": "xFF", "8990": ".env", "8991": "_err", "8992": "osh", "8993": "Direction", "8994": "Cancel", "8995": "ĠFrank", "8996": "Ġfinding", "8997": "Ġrouter", "8998": "ãĥ»", "8999": "ses", "9000": "Ġcrow", "9001": "=='", "9002": "Ġsand", "9003": "Ġrid", "9004": "iture", "9005": "Ġentre", "9006": "Ġobserv", "9007": "Ġvac", "9008": "ðŁ", "9009": "-T", "9010": "Art", "9011": "night", "9012": ".search", "9013": "Ġexchange", "9014": "Ġdistrict", "9015": ".os", "9016": "Ġdepartment", "9017": "Ġdocuments", "9018": "Ġcentury", "9019": "ĠNext", "9020": "Host", "9021": "ĠKIND", "9022": "Ġsusp", "9023": "-P", "9024": "rend", "9025": ".em", "9026": "uite", "9027": "isters", "9028": "(json", "9029": "ĠAnn", "9030": "wt", "9031": "ati", "9032": "ĠHTML", "9033": "when", "9034": "Directory", "9035": "Ġshut", "9036": "<a", "9037": "edy", "9038": "Ġhealthy", "9039": "Ġtemperature", "9040": "ĠGen", "9041": "Ġmetal", "9042": "Ġsubmit", "9043": "ĠDO", "9044": "Ġattract", "9045": "ĠWord", "9046": "Ġll", "9047": "Ġseemed", "9048": "ko", "9049": "IED", "9050": "Ġlabor", "9051": ".Context", "9052": "Ġasset", "9053": "you", "9054": "Ġcars", "9055": "ĠColumn", "9056": "ĠrÃ©", "9057": "Ġsquare", "9058": "ĠNSString", "9059": "âĢĿ,", "9060": "apes", "9061": "Ġthanks", "9062": "(props", "9063": "Ġtick", "9064": "Ġexperiment", "9065": "Ġprison", "9066": "tree", "9067": "-text", "9068": "ĠIOException", "9069": "-width", "9070": "_STATUS", "9071": "fast", "9072": "-body", "9073": "-header", "9074": "Ġguar", "9075": "crete", "9076": "ĠTim", "9077": "Ġclearly", "9078": "ĠRepublican", "9079": "Ġjustify", "9080": "Ð¸ÑĤ", "9081": "ĉĠĠĠĠ", "9082": "cache", "9083": ";//", "9084": "Ġpresence", "9085": "Ġfactors", "9086": "Ġemployee", "9087": "]))", "9088": "Member", "9089": "Ġselector", "9090": "bor", "9091": "ĠMex", "9092": "utex", "9093": "_tag", "9094": "ailure", "9095": "ĠNet", "9096": "Ġreli", "9097": "EG", "9098": "Ġfprintf", "9099": "Ġteen", "9100": "loss", "9101": "Ġleaving", "9102": "Delegate", "9103": "Ġbeat", "9104": "Ġminute", "9105": "subscribe", "9106": "Ġredistribute", "9107": "Constants", "9108": "Ġcancer", "9109": "/{", "9110": "BL", "9111": "Ġspan", "9112": "ĠChild", "9113": "Center", "9114": "Ġearth", "9115": "YS", "9116": "ĠLevel", "9117": "Ġsea", "9118": ".support", "9119": ".inner", "9120": ".Item", "9121": "illing", "9122": "ĠĠĠĠĊĠĠĠĠĊ", "9123": "ĠLabel", "9124": "ĠEst", "9125": "(arg", "9126": "boBox", "9127": "ĉforeach", "9128": "cos", "9129": "Failed", "9130": "swers", "9131": "Editor", "9132": "ront", "9133": "ĠMP", "9134": "expr", "9135": "ĠLife", "9136": "Ġ??", "9137": "Ã¶r", "9138": "Ġattend", "9139": "ĠQue", "9140": "Ġspecies", "9141": "-D", "9142": "Ġaus", "9143": "Struct", "9144": "Ġadvantage", "9145": "oston", "9146": "-block", "9147": "initial", "9148": "CRE", "9149": "Ġtruly", "9150": "Ġcompare", "9151": "orney", "9152": "Ġspect", "9153": "Full", "9154": "bes", "9155": "Ġvisible", "9156": "Ġmess", "9157": "stances", "9158": "Ġcloud", "9159": "_version", "9160": "Ġfurn", "9161": "icago", "9162": "LOW", "9163": "Ġtraffic", "9164": "Ġfol", "9165": "rypto", "9166": "Ġdeclar", "9167": "Ġslot", "9168": "ĠExt", "9169": "ĠEngland", "9170": "ĠUnder", "9171": "Ġta", "9172": "letter", "9173": "Ġofficer", "9174": "ĠDonald", "9175": "Yes", "9176": "_json", "9177": "ITableView", "9178": "ĠUSE", "9179": "mployee", "9180": "Ġopinion", "9181": "ĠAut", "9182": "border", "9183": "Ġadvice", "9184": "Ġautomatically", "9185": "isco", "9186": "Ġmm", "9187": ".vis", "9188": "aml", "9189": "Ġinitialize", "9190": "Ġ({", "9191": "Ġgeneration", "9192": "Ġbits", "9193": "clipse", "9194": "Ġunf", "9195": "utors", "9196": "plt", "9197": "Ġdelta", "9198": "estroy", "9199": "isis", "9200": "<br", "9201": "Ġlimitations", "9202": "Ġended", "9203": "ĠMad", "9204": "ilm", "9205": "These", "9206": "ĠMinister", "9207": "Ġchart", "9208": "Fragment", "9209": "Ġindependent", "9210": "Year", "9211": "Ġinstr", "9212": "Ġtags", "9213": "AVE", "9214": "ĠArch", "9215": "stop", "9216": "Progress", "9217": "Ġmi", "9218": "Ġlearned", "9219": "Ge", "9220": "Ġhotel", "9221": "SM", "9222": "TYPE", "9223": "Ġcy", "9224": "ERSION", "9225": "unately", "9226": "limit", "9227": "sel", "9228": "Ġmovies", "9229": "Ġsteel", "9230": "oz", "9231": "gb", "9232": "ĠCamp", "9233": "site", "9234": "ĠLogger", "9235": "PLE", "9236": ".right", "9237": "ĠCore", "9238": "Ġmixed", "9239": "step", "9240": "Ġputs", "9241": "super", "9242": "Router", "9243": ".Http", "9244": "lyph", "9245": "ĠColors", "9246": "Ġandroidx", "9247": ".str", "9248": "Ġinnov", "9249": "Ġdeck", "9250": "apers", "9251": "](", "9252": "continue", "9253": "spec", "9254": "ĠRoad", "9255": "ASH", "9256": "iliar", "9257": "Ġcontinues", "9258": "Ġappoint", "9259": "ĠVir", "9260": "Ġ?>\"", "9261": "Ġbin", "9262": "}\",", "9263": "going", "9264": "each", "9265": "BD", "9266": "ĠAccess", "9267": "Doc", "9268": "ĠManagement", "9269": "BER", "9270": "asket", "9271": ".getInstance", "9272": "Ġestablished", "9273": "socket", "9274": "INS", "9275": "ĉvirtual", "9276": "ĉresult", "9277": "READ", "9278": "_height", "9279": "ĠFont", "9280": "_html", "9281": "Ġneighbor", "9282": "lor", "9283": "Ġgather", "9284": "Ġidentity", "9285": "Ġfab", "9286": "padding", "9287": "ĠRoute", "9288": "Enumerable", "9289": "Ã´", "9290": "Ġforced", "9291": "/jquery", "9292": "resents", "9293": "_left", "9294": ".Param", "9295": "ĉthrow", "9296": "ĠHam", "9297": "Ġeventually", "9298": "acer", "9299": "pub", "9300": "Ġtra", "9301": "unique", "9302": "del", "9303": "ĠFlorida", "9304": "ĠClean", "9305": "xa", "9306": "ĠÂ·", "9307": "Ġvalidate", "9308": "Visual", "9309": "Expression", "9310": "_func", "9311": "member", "9312": "ĉh", "9313": "trl", "9314": "ĉG", "9315": "napshot", "9316": "ĠPropTypes", "9317": "vin", "9318": "owl", "9319": "ifies", "9320": "Ġ$('.", "9321": "ĠContext", "9322": "ĠToast", "9323": ".Key", "9324": "Ġofficers", "9325": "/n", "9326": "sn", "9327": "undefined", "9328": ".items", "9329": "utow", "9330": "amage", "9331": "Ġaccounts", "9332": "ookie", "9333": "Section", "9334": "icians", "9335": "Ġadvis", "9336": "(is", "9337": "[:,", "9338": "ĠFrance", "9339": "Func", "9340": "icious", "9341": "Ġtok", "9342": "Channel", "9343": "ĠAD", "9344": "_NUM", "9345": "Ġtimeout", "9346": "lemma", "9347": "reme", "9348": "uj", "9349": ".Al", "9350": "uclear", "9351": "(os", "9352": "(\"<", "9353": "fetch", "9354": "Ġbal", "9355": "Ġguid", "9356": "-align", "9357": "ĠWrite", "9358": "ĠOnce", "9359": "utowired", "9360": "ODULE", "9361": "Ġpitch", "9362": "CF", "9363": "bytes", "9364": "ĠCommission", "9365": "Ġincred", "9366": "PER", "9367": "_response", "9368": "ĠLos", "9369": "parser", "9370": "Ġassume", "9371": ".Request", "9372": "ĠToken", "9373": "_position", "9374": "Ġnom", "9375": "-term", "9376": "Ġremaining", "9377": "iostream", "9378": "Ġpieces", "9379": "apy", "9380": "ĠLess", "9381": "range", "9382": "umbn", "9383": "prise", "9384": "_option", "9385": "Impl", "9386": "kwargs", "9387": "Ġbusinesses", "9388": "Alert", "9389": "Ġparties", "9390": "ĠContainer", "9391": "ĠPrivate", "9392": "ĠPlan", "9393": "Ġregistered", "9394": "Ġjour", "9395": "acker", "9396": "ÐµÐ½Ð¸", "9397": "/>", "9398": "chat", "9399": "sect", "9400": "Ġcreation", "9401": "olutely", "9402": "Ġinstant", "9403": "Ġdelivery", "9404": "icken", "9405": "yes", "9406": "ĠFranc", "9407": "bling", "9408": "enda", "9409": "[(", "9410": "_range", "9411": "ĠĠĠĠĠĠĠĠĠĠĠĠĠĠĠĠĠĠĠĠĠĠĠĠĠĠĠĠĠĠĠĠĠĠ", "9412": "Ġschedule", "9413": "Conn", "9414": "Ġthank", "9415": "xd", "9416": "Ġhook", "9417": "Ġdocumentation", "9418": "Parameters", "9419": "Hello", "9420": "vt", "9421": "Ġarticles", "9422": "Ġwest", "9423": "defined", "9424": ".select", "9425": "okens", "9426": "ĠVAL", "9427": ".file", "9428": "reset", "9429": "Ġmys", "9430": "ĠMA", "9431": "]),", "9432": "Ġcities", "9433": "related", "9434": "Ġappeared", "9435": "Ġwid", "9436": ".panel", "9437": "ĠIns", "9438": ".entity", "9439": "Ġdecre", "9440": "ĠLou", "9441": "(time", "9442": "ĠThank", "9443": ".createElement", "9444": "Ġmentioned", "9445": "ounce", "9446": "ĠTry", "9447": "ĠWall", "9448": "/images", "9449": "ĠMenu", "9450": "ĠEr", "9451": "Ġcritic", "9452": "ĠYear", "9453": "(param", "9454": "Ġflo", "9455": "NN", "9456": "ooter", "9457": "ĠAff", "9458": "\"github", "9459": "rooms", "9460": "Ġhyp", "9461": "global", "9462": "Ġavec", "9463": "Ġcompletion", "9464": "Ġcond", "9465": "onymous", "9466": "(temp", "9467": "Ġstars", "9468": "Ġrelevant", "9469": "Ġcovered", "9470": "Ġelim", "9471": "_types", "9472": "(bool", "9473": "Ġtu", "9474": "_exists", "9475": "Ġsecure", "9476": "Ġstored", "9477": "]/", "9478": "xF", "9479": "ĠController", "9480": "Ġmigr", "9481": "MI", "9482": "ĠDen", "9483": "Ġannual", "9484": "UIL", "9485": "-and", "9486": "Ġcrime", "9487": "bel", "9488": "Ġkitchen", "9489": "@g", "9490": "_ph", "9491": "ournament", "9492": "ĠSocial", "9493": "ĠSpecial", "9494": "logger", "9495": "Ġtail", "9496": "Ġunknown", "9497": "ded", "9498": "Ġapprec", "9499": "(db", "9500": "cf", "9501": "Ġassign", "9502": "-out", "9503": "ĠMont", "9504": "dp", "9505": "widget", "9506": "Ġstone", "9507": "-primary", "9508": ".grid", "9509": "Results", "9510": "azz", "9511": "Ġdaughter", "9512": "Ġcurr", "9513": "Ġlin", "9514": "Ġsouth", "9515": "forms", "9516": "ĠOUT", "9517": "lette", "9518": "aks", "9519": "igure", "9520": "ĠEU", "9521": "variable", "9522": "Ġbrief", "9523": "ĠScott", "9524": "Ġconference", "9525": "anda", "9526": "_lock", "9527": "oral", "9528": "Ġeine", "9529": "ORS", "9530": "////////////////////////////////////////////////////////////////", "9531": "esso", "9532": "Ġris", "9533": "Ġgender", "9534": "estic", "9535": "License", "9536": "(out", "9537": "Ġms", "9538": "See", "9539": "Ġwilling", "9540": "aze", "9541": "Ġsports", "9542": "Ġyes", "9543": "lu", "9544": "Ġpurs", "9545": "/javascript", "9546": "-pro", "9547": "navbar", "9548": "_product", "9549": "/bootstrap", "9550": "Ġdriving", "9551": "ĠÄ", "9552": "Ġpropos", "9553": "ultip", "9554": "uplic", "9555": ".email", "9556": "Ġapprox", "9557": "(cl", "9558": "Ġwear", "9559": "Ġreply", "9560": "asset", "9561": "Ġice", "9562": "Ġtx", "9563": "kr", "9564": "ĠGermany", "9565": "ĠGeorge", "9566": "Ġcb", "9567": "ĉerr", "9568": "Move", "9569": "Ġpoly", "9570": "voice", "9571": "}\"", "9572": "Ġanimal", "9573": "Av", "9574": "ĠLocation", "9575": "Ġnative", "9576": "][\"", "9577": "<double", "9578": "Ġmais", "9579": ",int", "9580": "Ġprepar", "9581": "Ġinterval", "9582": "plementation", "9583": "_ERR", "9584": "Ġbug", "9585": ">\"", "9586": "stat", "9587": "<span", "9588": "Ġfaith", "9589": "Ġrom", "9590": "prev", "9591": "ĠElect", "9592": "Find", "9593": "Ġgod", "9594": "otor", "9595": "//----------------------------------------------------------------", "9596": "original", "9597": "Cpp", "9598": "ĠSenate", "9599": "Ġpositions", "9600": "Ġweapons", "9601": "Ġcoff", "9602": "Ġpurposes", "9603": "pol", "9604": "Ġimpress", "9605": "Ġanimals", "9606": ".Entity", "9607": "(np", "9608": "Ġmurder", "9609": "Ġ``", "9610": "flag", "9611": "Ġsolutions", "9612": "ĠActive", "9613": "Ġbright", "9614": ".date", "9615": "Ġsitu", "9616": "ï¼Ī", "9617": ".ID", "9618": "Ġsie", "9619": "akt", "9620": "Space", "9621": ".dat", "9622": ".indexOf", "9623": "han", "9624": "azine", "9625": "ĠZe", "9626": "Ġcrash", "9627": "(/", "9628": ">=", "9629": "Ð±", "9630": "iva", "9631": ".AutoSize", "9632": "ĠLat", "9633": "_ext", "9634": "Initialize", "9635": ".register", "9636": "OPY", "9637": "Ġreverse", "9638": "_dis", "9639": "'][", "9640": "Ġprompt", "9641": "onto", "9642": "ĠJournal", "9643": "router", "9644": "Ġmysqli", "9645": "#else", "9646": ")\"", "9647": "-xs", "9648": "lets", "9649": "phan", "9650": ".LE", "9651": "Will", "9652": "Ġafford", "9653": "Ġskill", "9654": "-toggle", "9655": "NC", "9656": "Bind", "9657": "TS", "9658": "Just", "9659": "iteral", "9660": "YP", "9661": "ĉunsigned", "9662": "Ġwind", "9663": "Ġwarning", "9664": "ĠWater", "9665": "Ġdraft", "9666": "Ġcm", "9667": "Ġsam", "9668": "Ġholding", "9669": "zip", "9670": "ĠScience", "9671": "Ġsupposed", "9672": "Gen", "9673": "Ġdiet", "9674": "<h", "9675": "ĠPass", "9676": "vi", "9677": "Ġhusband", "9678": "ï¿½ï¿½", "9679": "note", "9680": "ĠAbout", "9681": "ĠInstitute", "9682": "Ġclimate", "9683": ".Format", "9684": "Ġnut", "9685": "ested", "9686": "Ġapparent", "9687": "Ġholds", "9688": "fi", "9689": "news", "9690": "CM", "9691": "video", "9692": "':'", "9693": "DITION", "9694": "ping", "9695": "Ġsenior", "9696": "wa", "9697": "_default", "9698": "ĠDatabase", "9699": "rep", "9700": "ESS", "9701": "nergy", "9702": ".Find", "9703": "_mask", "9704": "Ġrise", "9705": "Ġkernel", "9706": "::$", "9707": ".Q", "9708": "Ġoffering", "9709": "decl", "9710": "ĠCS", "9711": "Ġlisted", "9712": "Ġmostly", "9713": "enger", "9714": "Ġblocks", "9715": "olo", "9716": "Ġgoverning", "9717": "\\F", "9718": "Ġconcent", "9719": ".getText", "9720": "Ġmb", "9721": "Ġoccurred", "9722": "Ġchanging", "9723": "Scene", "9724": "_CODE", "9725": "Beh", "9726": "\"The", "9727": "Ġtile", "9728": "ĠAssociation", "9729": "ĉP", "9730": "alty", "9731": "_ad", "9732": "odies", "9733": "iated", "9734": "Ġprepared", "9735": "possible", "9736": "Ġmort", "9737": "TEST", "9738": "Ġignore", "9739": "Ġcalc", "9740": "Ġrs", "9741": "ĠassertEquals", "9742": "Ġsz", "9743": "ĠTHIS", "9744": "Ġcanvas", "9745": "java", "9746": "Ġdut", "9747": "VALID", "9748": ".sql", "9749": ".input", "9750": "Ġaux", "9751": "Sup", "9752": "Ġartist", "9753": "Vec", "9754": "_TIME", "9755": ".stringify", "9756": "etween", "9757": "ĠCategory", "9758": "Ġ[-", "9759": "ĠDevExpress", "9760": "ĠJul", "9761": "Ġring", "9762": ".ed", "9763": "YY", "9764": "Let", "9765": "TextField", "9766": "Ġflat", "9767": "_print", "9768": "ĠOTHER", "9769": "adian", "9770": "Ġchecked", "9771": "ele", "9772": "Align", "9773": "standing", "9774": "Ġ[],", "9775": "Ġlab", "9776": "ucky", "9777": "ĠChristmas", "9778": "(image", "9779": ".module", "9780": "Ġlots", "9781": "Ġslightly", "9782": "(final", "9783": "erge", "9784": "ĠPolice", "9785": "ĠRight", "9786": "Ġaward", "9787": "ĠOS", "9788": "Ġptr", "9789": "oves", "9790": "icated", "9791": "Ġmanage", "9792": "oliday", "9793": "Amount", "9794": "oolStrip", "9795": "tbody", "9796": "Nav", "9797": "wrap", "9798": "BB", "9799": "Ġwatching", "9800": "arios", "9801": "Ġoptional", "9802": "_K", "9803": "ĠLicensed", "9804": ".Map", "9805": "Timer", "9806": "ĠAP", "9807": "ĠRev", "9808": "(o", "9809": ",c", "9810": "umin", "9811": "etailed", "9812": "ĠHy", "9813": "Ġblank", "9814": "agger", "9815": "ĠSelf", "9816": "()[", "9817": ".make", "9818": "earn", "9819": "channel", "9820": "<pre", "9821": "blem", "9822": "_password", "9823": "_sp", "9824": "icing", "9825": "ez", "9826": "Ġtheory", "9827": "ĠTer", "9828": ",n", "9829": "logo", "9830": "ĠHTTP", "9831": "()))", "9832": ".handle", "9833": "World", "9834": "Ġpython", "9835": "Ġlif", "9836": "Ġtrav", "9837": "Ġconven", "9838": "company", "9839": "ĠClub", "9840": "Ver", "9841": "Btn", "9842": "Ġzone", "9843": "products", "9844": "ĠEduc", "9845": "Ġverify", "9846": "ĠMil", "9847": "ono", "9848": "ENCE", "9849": "Ġpacket", "9850": "Ġcer", "9851": "Ġenumer", "9852": "Ġpars", "9853": "formed", "9854": "Ġoccup", "9855": "tre", "9856": "Ġexercise", "9857": "Day", "9858": "_sum", "9859": "Ġasking", "9860": "aption", "9861": "Ġorders", "9862": "Ġspending", "9863": "ĠERR", "9864": ".Dis", "9865": "ĠUtil", "9866": "âĢľI", "9867": "\\'", "9868": "?)", "9869": "Ġemot", "9870": "Ġinfluence", "9871": "ĠAfrica", "9872": "atters", "9873": "Ùħ", "9874": ".session", "9875": "Ġchief", "9876": "ĉĉĉĉĉĉĉĉĉĉĉ", "9877": "Ġtom", "9878": "cluded", "9879": "serial", "9880": "_handler", "9881": ".Type", "9882": "aped", "9883": "Ġpolicies", "9884": "-ex", "9885": "-tr", "9886": "blank", "9887": "merce", "9888": "Ġcoverage", "9889": "Ġrc", "9890": "_matrix", "9891": "_box", "9892": "Ġcharges", "9893": "ĠBoston", "9894": "Pe", "9895": "Ġcircum", "9896": "Ġfilled", "9897": "Ġnorth", "9898": "ictureBox", "9899": "ĉres", "9900": "Ġtermin", "9901": "Ġ[âĢ¦", "9902": "IRECT", "9903": "Ġber", "9904": "Ġ\"../../", "9905": "retch", "9906": ".code", "9907": "_col", "9908": "ĠGovernment", "9909": "Ġargv", "9910": "ĠLord", "9911": "asi", "9912": "Exec", "9913": "ĉlet", "9914": "vertis", "9915": "Ġdiscussion", "9916": "enance", "9917": "outube", "9918": "typeof", "9919": "Ġserved", "9920": "ĠPut", "9921": "ĉx", "9922": "Ġsweet", "9923": "Before", "9924": "ategy", "9925": ".of", "9926": "ĠMaterial", "9927": "Sort", "9928": "ONT", "9929": "igital", "9930": "Why", "9931": "Ġsust", "9932": "abet", "9933": "Ġsegment", "9934": "ĠMuslim", "9935": "ĠfindViewById", "9936": "cut", "9937": "_TEXT", "9938": "ĠMary", "9939": "Ġloved", "9940": "Ġlie", "9941": "ĠJO", "9942": "Ġisset", "9943": "month", "9944": "Ġprime", "9945": "ti", "9946": "ĠCarol", "9947": "Use", "9948": "ĠPop", "9949": "ĠSave", "9950": "Interval", "9951": "execute", "9952": "dy", "9953": "ĠIran", "9954": "_cont", "9955": "ĉT", "9956": "Ġphase", "9957": "checkbox", "9958": "week", "9959": "Ġhide", "9960": "Ġtil", "9961": "Ġju", "9962": "Custom", "9963": "burg", "9964": "/M", "9965": "TON", "9966": "Ġquant", "9967": "Ġrub", "9968": "ixels", "9969": "Ġinstalled", "9970": "Ġdump", "9971": "Ġproperly", "9972": "(List", "9973": "Ġdecide", "9974": "apply", "9975": "Has", "9976": "Ġkeeping", "9977": "Ġcitizens", "9978": "Ġjoint", "9979": "pool", "9980": "Socket", "9981": "_op", "9982": "Ġweapon", "9983": "gnore", "9984": "ĠExec", "9985": "otten", "9986": "ĠMS", "9987": "Ġ(-", "9988": "ĠReview", "9989": "Ġexamples", "9990": "Ġtight", "9991": "!(", "9992": "DP", "9993": "ĠMessageBox", "9994": "Ġphotograph", "9995": "URI", "9996": "Ã©t", "9997": "low", "9998": "ĠGrand", "9999": ".persistence", "10000": "Ġmaintain", "10001": "Ġnums", "10002": "Ġzip", "10003": "ials", "10004": "ĠGets", "10005": "peg", "10006": "ĠBuffer", "10007": "~~~~", "10008": "rastructure", "10009": "ĠPL", "10010": "uen", "10011": "obby", "10012": "sizeof", "10013": "Ġpic", "10014": "Ġseed", "10015": "Ġexperienced", "10016": "Ġodd", "10017": "Ġkick", "10018": "Ġprocedure", "10019": "avigator", "10020": "-on", "10021": ",j", "10022": "ĠAlthough", "10023": "ĠuserId", "10024": "accept", "10025": "Blue", "10026": "IColor", "10027": "layer", "10028": "available", "10029": "Ġends", "10030": ".table", "10031": "Ġdataset", "10032": "bus", "10033": "Ġexplain", "10034": "(pro", "10035": "ĠCommittee", "10036": "Ġnoted", "10037": "Dim", "10038": "stdio", "10039": "_source", "10040": "ĠWeek", "10041": "ĠEdge", "10042": "Ġoperating", "10043": "Ġeste", "10044": "ipl", "10045": "agination", "10046": "Ġproceed", "10047": "Ġanimation", "10048": ".Models", "10049": "ĠWatch", "10050": "iat", "10051": "Ġoppon", "10052": "/A", "10053": "Report", "10054": "Ġsounds", "10055": "_buf", "10056": "IELD", "10057": "Ġbund", "10058": "ĉget", "10059": ".pr", "10060": "(tmp", "10061": "Ġkid", "10062": "Ġyang", "10063": "NotFound", "10064": "ÑĨ", "10065": "math", "10066": "@gmail", "10067": "ĠLIMIT", "10068": "redients", "10069": "Ġvent", "10070": "avigate", "10071": "Look", "10072": "Ġreligious", "10073": "Ġrand", "10074": "rio", "10075": "(GL", "10076": "_ip", "10077": "uan", "10078": "iciency", "10079": "ĠChange", "10080": "ĠEntity", "10081": "Ġrencontre", "10082": "ĠRet", "10083": "plan", "10084": "Ã©n", "10085": "BOOL", "10086": "uries", "10087": "train", "10088": "Definition", "10089": "============", "10090": "zz", "10091": "Animation", "10092": "ĠOK", "10093": "_menu", "10094": ".bl", "10095": "_score", "10096": "Ġacad", "10097": "(System", "10098": "Ġrefresh", "10099": "'=>$", "10100": ".Graphics", "10101": "amento", "10102": "pid", "10103": "tc", "10104": "Ġtips", "10105": "Ġhomes", "10106": "Ġfuel", "10107": "âĸ", "10108": "_helper", "10109": "ĠĠčĊ", "10110": "ĠRoom", "10111": ".Close", "10112": "_attr", "10113": "ĠMount", "10114": "ĠEv", "10115": "arser", "10116": "_top", "10117": "eah", "10118": "ĠDelete", "10119": "ãĢį", "10120": "uke", "10121": "Ġusage", "10122": "aria", "10123": "_dev", "10124": "Ġtexture", "10125": "Ġconversation", "10126": "eper", "10127": "Bean", "10128": "done", "10129": "nonatomic", "10130": "ĠSecond", "10131": "Ġshooting", "10132": "_pre", "10133": "Components", "10134": "__,", "10135": "stitution", "10136": ".Char", "10137": "Ġpresented", "10138": "Ġwa", "10139": "oker", "10140": "iner", "10141": "Ġbecoming", "10142": "Ġincident", "10143": "Att", "10144": "Ġrevealed", "10145": "forc", "10146": "Ġboot", "10147": ".page", "10148": "Enumerator", "10149": "_->", "10150": "Photo", "10151": "Ġspring", "10152": ".\",", "10153": "ĠDictionary", "10154": "BJECT", "10155": "Ġlocations", "10156": "Ġsamples", "10157": "InputStream", "10158": "ĠBrown", "10159": "Ġstats", "10160": "quality", "10161": "Ñħ", "10162": "-dis", "10163": "Ġhelping", "10164": "Ġped", "10165": "(se", "10166": "ĠWho", "10167": "alian", "10168": "internal", "10169": "Ġft", "10170": ">().", "10171": "->{", "10172": "Ġmine", "10173": "Ġsector", "10174": "Ġgro", "10175": "Ġopportunities", "10176": "ĠÃ¼", "10177": "Ġmp", "10178": "Ġalleged", "10179": "Ġdoubt", "10180": "Mouse", "10181": "About", "10182": "_part", "10183": "Ġchair", "10184": "Ġstopped", "10185": "loop", "10186": "entities", "10187": "Ġapps", "10188": "ansion", "10189": "Ġmental", "10190": "ĠĠĠĠĠĠĠĠĠĠĠĠĠĠĠĠĠĠĠĠĠĠĠĠĠĠĠĠĠĠĠĠĠĠĠĠĠĠĠĠĠ", "10191": "FR", "10192": "Ġdefend", "10193": "care", "10194": "Ġideal", "10195": "/api", "10196": "urface", "10197": "Ġele", "10198": "ulator", "10199": "ĠRights", "10200": "anguages", "10201": "Ġfunds", "10202": "Ġadapt", "10203": "Attributes", "10204": "Ġdeploy", "10205": "opts", "10206": "Ġvalidation", "10207": "Ġconcerns", "10208": "uce", "10209": ".num", "10210": "ulture", "10211": "ila", "10212": "Ġcup", "10213": "Ġpure", "10214": ".Fore", "10215": "ĠHashMap", "10216": ".valueOf", "10217": "asm", "10218": "MO", "10219": "Ġcs", "10220": "Ġstores", "10221": "Ġ************************************************************************", "10222": "Ġcommunication", "10223": "mem", "10224": ".EventHandler", "10225": ".Status", "10226": "_right", "10227": ".setOn", "10228": "Sheet", "10229": "Ġidentify", "10230": "enerated", "10231": "ordered", "10232": "Ġ\"[", "10233": "Ġswe", "10234": "Condition", "10235": "ĠAccording", "10236": "Ġprepare", "10237": "Ġrob", "10238": "Pool", "10239": "Ġsport", "10240": "rv", "10241": "ĠRouter", "10242": "Ġalternative", "10243": "([]", "10244": "ĠChicago", "10245": "ipher", "10246": "ische", "10247": "ĠDirector", "10248": "kl", "10249": "ĠWil", "10250": "keys", "10251": "Ġmysql", "10252": "Ġwelcome", "10253": "king", "10254": "ĠManager", "10255": "Ġcaught", "10256": "Score", "10257": "_PR", "10258": "Ġsurvey", "10259": "hab", "10260": "Headers", "10261": "ADER", "10262": "Ġdecor", "10263": "Ġturns", "10264": "Ġradius", "10265": "errupt", "10266": "Cor", "10267": "Ġmel", "10268": "Ġintr", "10269": "(q", "10270": "ĠAC", "10271": "amos", "10272": "MAX", "10273": "ĠGrid", "10274": "ĠJesus", "10275": "ĠĠĠĠĠĠĠĠĠĠĠĠĠĠĠĠĠĠĠĠĠĠĠĠĠĠĠĠĠĠĠĠĠĠĠĠ", "10276": ".DE", "10277": "Ġts", "10278": "Ġlinked", "10279": "free", "10280": "ĠQt", "10281": "Ġfaster", "10282": "ctr", "10283": "_J", "10284": "DT", "10285": ".Check", "10286": "Ġcombination", "10287": "Ġintended", "10288": "-the", "10289": "-type", "10290": "ectors", "10291": "ami", "10292": "uting", "10293": "Ġuma", "10294": "XML", "10295": "UCT", "10296": "Ap", "10297": "ĠRandom", "10298": "Ġran", "10299": ".sort", "10300": "Ġsorted", "10301": ".Un", "10302": "_PER", "10303": "itory", "10304": "Ġpriority", "10305": "ĠGal", "10306": "ĠOld", "10307": "hot", "10308": "ĠDisplay", "10309": "(sub", "10310": "_TH", "10311": "_Y", "10312": "ĠCare", "10313": "loading", "10314": "Kind", "10315": "_handle", "10316": ",,", "10317": "rase", "10318": "_replace", "10319": ".addEventListener", "10320": "ĠRT", "10321": "Ġentered", "10322": "gers", "10323": "Ġich", "10324": "(start", "10325": "/app", "10326": "Ġbrother", "10327": "Memory", "10328": "Outlet", "10329": "Ġutf", "10330": "prec", "10331": "Ġnavigation", "10332": "ORK", "10333": "Ġdst", "10334": "Detail", "10335": "Ġaudience", "10336": "Ġdur", "10337": "Ġcluster", "10338": "unched", "10339": "Ġ],", "10340": "Ġcomfortable", "10341": ".values", "10342": "ĠTotal", "10343": "Ġsnap", "10344": "Ġstandards", "10345": "Ġperformed", "10346": "hand", "10347": "(\"@", "10348": "Ġphil", "10349": "ibr", "10350": "trim", "10351": "Ġforget", "10352": "Ġdoctor", "10353": ".TextBox", "10354": "icons", "10355": ",s", "10356": "ĠOp", "10357": "Sm", "10358": "Stop", "10359": "ĉList", "10360": "ĉu", "10361": "Comment", "10362": "_VERSION", "10363": ".Xtra", "10364": "Person", "10365": "rb", "10366": "LOB", "10367": "ĠĠĠĠĠĠĠĠĠĠĠĠĠĠĠĠĠĠĠĠĊ", "10368": "ĠCentral", "10369": "ICK", "10370": "raq", "10371": "Ġputting", "10372": "Ġmd", "10373": "ĠLove", "10374": "Program", "10375": "Border", "10376": "oor", "10377": "Ġallowing", "10378": "after", "10379": "Ġentries", "10380": "ĠMaybe", "10381": "]).", "10382": "ĠShort", "10383": ")\\", "10384": ".now", "10385": "friend", "10386": "Ġprefer", "10387": "ĠGPIO", "10388": "osis", "10389": "ĠGameObject", "10390": "Ġskip", "10391": "Ġcompetition", "10392": "_match", "10393": "lications", "10394": "_CONT", "10395": ".groupBox", "10396": "Ġals", "10397": "\"We", "10398": "_eq", "10399": "lan", "10400": "_search", "10401": "ĠMusic", "10402": "asis", "10403": "Ġbind", "10404": "ĠIsland", "10405": "rum", "10406": "(E", "10407": "Ġseat", "10408": "Video", "10409": "Ġack", "10410": "reek", "10411": "={()", "10412": "Ġrating", "10413": "Ġrestaurant", "10414": "DEX", "10415": "(buf", "10416": "pping", "10417": "uality", "10418": "Ġleague", "10419": "Ġfocused", "10420": "apon", "10421": "$data", "10422": "CLUD", "10423": "CLUDING", "10424": "Ġabsolute", "10425": "(query", "10426": "Ġtells", "10427": "Ang", "10428": "Ġcommunities", "10429": "Ġhonest", "10430": "oking", "10431": "Ġapart", "10432": "arity", "10433": "/$", "10434": "_module", "10435": "ĠEnc", "10436": ".an", "10437": ".Config", "10438": "Cre", "10439": "Ġshock", "10440": "ĠArab", "10441": "IENT", "10442": "/re", "10443": "Ġretrie", "10444": "ycler", "10445": "isa", "10446": "ĠOrgan", "10447": ".graph", "10448": "Ġí", "10449": "ĠBAS", "10450": "Enum", "10451": "Ġpossibly", "10452": "ĠJapanese", "10453": "Ġcraft", "10454": "ĠPlace", "10455": "Ġtalent", "10456": "Ġfunding", "10457": "Ġconfirmed", "10458": "Ġcycle", "10459": "/x", "10460": "GE", "10461": "Ġhearing", "10462": "Ġplants", "10463": "Ġmouth", "10464": "pages", "10465": "oria", "10466": "ĠRemove", "10467": "_total", "10468": "Ġod", "10469": "ollapse", "10470": "door", "10471": "Ġbought", "10472": "Ġaddr", "10473": "ARCH", "10474": "_dim", "10475": "dden", "10476": "Ġdecades", "10477": "REQUEST", "10478": "Ġversions", "10479": "fire", "10480": "Ġmoves", "10481": "fb", "10482": "Ġcoffee", "10483": ".connect", "10484": "ĠRow", "10485": "Ġschema", "10486": "Scope", "10487": "-Type", "10488": "Ġfighting", "10489": "Ġretail", "10490": "Ġmodified", "10491": "TF", "10492": "Files", "10493": "nie", "10494": "_command", "10495": "stone", "10496": "ĠÑĤ", "10497": "_thread", "10498": "Ġbond", "10499": "ĠDevelopment", "10500": "Ġpt", "10501": "FORM", "10502": "plet", "10503": "Ġidentified", "10504": "cpp", "10505": "Ġcoding", "10506": "oked", "10507": "ĠMaster", "10508": "IDTH", "10509": "Ġresidents", "10510": "redit", "10511": "ĠPhoto", "10512": "=-", "10513": "unte", "10514": "ateur", "10515": "_STATE", "10516": "ĠSing", "10517": "Ġsheet", "10518": ".val", "10519": "orse", "10520": "Ġhers", "10521": "Ġdetermined", "10522": "Common", "10523": "Ġwed", "10524": "_queue", "10525": "PH", "10526": "ĠAtl", "10527": "cred", "10528": "/LICENSE", "10529": "Ġmes", "10530": "Ġadvanced", "10531": ".java", "10532": ".Sh", "10533": "Go", "10534": "kill", "10535": "fp", "10536": "_settings", "10537": "Ġpal", "10538": "Ġtruck", "10539": "Ġcombined", "10540": "Ġ\"${", "10541": "ĠCorpor", "10542": "Ġjoined", "10543": "ĠJose", "10544": "ĠCup", "10545": "uns", "10546": "estival", "10547": "levision", "10548": "Ġbroken", "10549": "Ġmarriage", "10550": "ĠWestern", "10551": "Ġrepresents", "10552": "ĠTitle", "10553": "Ġss", "10554": ".Ass", "10555": "ongoose", "10556": "iento", "10557": "Ġabsolutely", "10558": "Ġsmooth", "10559": "TERN", "10560": "ĠUnless", "10561": "Word", "10562": "Ġmerge", "10563": "igan", "10564": "ĠVol", "10565": "Ġnn", "10566": ".getId", "10567": "ĠÐ·", "10568": "Ġsexy", "10569": "Ġseeking", "10570": "Single", "10571": ".this", "10572": "Ġkom", "10573": "bound", "10574": ";\"", "10575": "ĠfontSize", "10576": "_df", "10577": "Ġinjury", "10578": "(H", "10579": "Ġissued", "10580": "_END", "10581": ":self", "10582": "Ġpatch", "10583": "Ġleaves", "10584": "Ġadopt", "10585": "FileName", "10586": "ãĢĲ", "10587": "Ġexecutive", "10588": "ĠByte", "10589": "Ġnu", "10590": "outing", "10591": "cluding", "10592": "-R", "10593": ".options", "10594": "Ġsubstant", "10595": "avax", "10596": "ĠBUT", "10597": "Ġtechnical", "10598": "Ġtwice", "10599": "ĠmÃ¡s", "10600": "Ġunivers", "10601": "yr", "10602": "Ġdrag", "10603": "ĠDC", "10604": "Ġsed", "10605": "Ġbot", "10606": "ĠPal", "10607": "ĠHall", "10608": "forcement", "10609": "Ġauch", "10610": ".mod", "10611": "notation", "10612": "_files", "10613": ".line", "10614": "_flag", "10615": "[name", "10616": "Ġresolution", "10617": "Ġbott", "10618": "(\"[", "10619": "ende", "10620": "(arr", "10621": "Free", "10622": "(@\"", "10623": "ĠDistrict", "10624": "PEC", "10625": ":-", "10626": "Picker", "10627": "ĠJo", "10628": "ĠĠĠĠĠĊ", "10629": "ĠRiver", "10630": "_rows", "10631": "Ġhelpful", "10632": "Ġmassive", "10633": "Ġmeasures", "10634": "ĠRuntime", "10635": "Ġworry", "10636": "ĠSpec", "10637": "ĉD", "10638": "ãĢĳ", "10639": "Ġworse", "10640": "(filename", "10641": "Ġlay", "10642": "Ġmagic", "10643": "ĠTheir", "10644": "oul", "10645": "stroy", "10646": "ĠWhere", "10647": "Ġsudden", "10648": "Ġdefe", "10649": "Ġbinding", "10650": "Ġflight", "10651": "ĠOnInit", "10652": "ĠWomen", "10653": "ĠPolicy", "10654": "Ġdrugs", "10655": "ishing", "10656": "('../", "10657": "ĠMel", "10658": "peat", "10659": "tor", "10660": "Ġproposed", "10661": "Ġstated", "10662": "_RES", "10663": "Ġeast", "10664": "ĠCONDITION", "10665": "_desc", "10666": "Ġwinning", "10667": "folio", "10668": "Mapper", "10669": "ĠPan", "10670": "ĠAnge", "10671": ".servlet", "10672": "Ġcopies", "10673": "LM", "10674": "Ġvm", "10675": "Ġdictionary", "10676": "Seg", "10677": "elines", "10678": "ĠSend", "10679": "Ġiron", "10680": "ĠFort", "10681": ".domain", "10682": "Ġdebate", "10683": "NotNull", "10684": "eq", "10685": "acher", "10686": "lf", "10687": "ĉfmt", "10688": "Ġlawy", "10689": "ÄŁ", "10690": "ĠMen", "10691": "Ġtrim", "10692": "(NULL", "10693": "Ġ!!", "10694": "Ġpad", "10695": "Ġfollows", "10696": "\"][\"", "10697": "requ", "10698": "ĠEp", "10699": ".github", "10700": "(img", "10701": "eto", "10702": "('\\", "10703": "Services", "10704": "umbnail", "10705": "_main", "10706": "pleted", "10707": "fortunately", "10708": "Ġwindows", "10709": "Ġplane", "10710": "ĠConnection", "10711": ".local", "10712": "uard", "10713": "}\\", "10714": "==\"", "10715": "andon", "10716": "ĠRoy", "10717": "west", "10718": "iginal", "10719": "emies", "10720": "itz", "10721": "ĠPeter", "10722": "Ġtough", "10723": "Ġreduced", "10724": "Ġcalculate", "10725": "Ġrapid", "10726": "customer", "10727": "Ġefficient", "10728": "Ġmedium", "10729": "Ġfell", "10730": ".ref", "10731": "ĠCas", "10732": "Ġfeedback", "10733": "Speed", "10734": "(output", "10735": "aje", "10736": "Ġcategories", "10737": "Ġfee", "10738": "};", "10739": "Ġdeleted", "10740": "reh", "10741": "Ġproof", "10742": "Desc", "10743": "Build", "10744": "Ġsides", "10745": ".ArrayList", "10746": "-%", "10747": "ĠĠĠĠĠĠĠĠĠĠĠĠĠĠĠĠĠĠĠĠĠĠĠĠĠĠĠĠĠĠĠĠĠĠĠĠĠĠ", "10748": "Ø±", "10749": ".match", "10750": "Ð»Ð¸", "10751": "Ġfeels", "10752": "Ġachieve", "10753": "Ġclim", "10754": "_ON", "10755": "ĠCD", "10756": "Ġteacher", "10757": "_current", "10758": "bn", "10759": "_PL", "10760": "isting", "10761": "Enable", "10762": "GEN", "10763": "Ġtv", "10764": "Ġsock", "10765": "Ġplays", "10766": "Ġdiscount", "10767": "ĠKE", "10768": "ĠDebug", "10769": "Fore", "10770": "ĠIraq", "10771": "Ġappearance", "10772": "Mon", "10773": "Ġstyled", "10774": "ĠHuman", "10775": "iot", "10776": "ĠHistory", "10777": "Ġsac", "10778": "ĠCollection", "10779": "Ġrecommended", "10780": ".Selected", "10781": "Ġorganizations", "10782": "Ġdiscovered", "10783": "cohol", "10784": "adas", "10785": "ĠThomas", "10786": "May", "10787": "Ġconserv", "10788": "Ġdomin", "10789": "ĠFollow", "10790": "ĠSection", "10791": "ĠThanks", "10792": "Username", "10793": "Ġrecipe", "10794": "Ġwonderful", "10795": ".sleep", "10796": "_if", "10797": "ĉĊĉĊ", "10798": "orno", "10799": "Ġru", "10800": "_target", "10801": ".\"\"", "10802": "à¦", "10803": "EventArgs", "10804": "Ġinputs", "10805": "Ġfif", "10806": "Ġvision", "10807": "cy", "10808": "ĠSeries", "10809": ")(((", "10810": "Ġtrading", "10811": "Ġmarker", "10812": "Begin", "10813": "Ġtypically", "10814": "Ġcauses", "10815": "dropdown", "10816": "_DEBUG", "10817": "Ġdetect", "10818": "country", "10819": "ĉR", "10820": "appy", "10821": "Ġcref", "10822": "('<", "10823": "\"=>", "10824": "ĠLE", "10825": "reader", "10826": "Ġadministr", "10827": "Ãµ", "10828": "ucket", "10829": "Ġfashion", "10830": ".char", "10831": "izar", "10832": "Ġdisable", "10833": "Ġsuc", "10834": "ĠLive", "10835": "issue", "10836": "Ġmetadata", "10837": "flags", "10838": "ĠðŁ", "10839": "Ġcommitted", "10840": "Ġva", "10841": "Ġrough", "10842": "Ġhighlight", "10843": "_vars", "10844": "VO", "10845": "Ġencoding", "10846": "-Z", "10847": "_sign", "10848": "$(\"#", "10849": "Ġrain", "10850": "reatest", "10851": "ĠEND", "10852": "Selection", "10853": "Ġcandidates", "10854": "Ġsav", "10855": ".Empty", "10856": "Ġdecisions", "10857": "Ġcollabor", "10858": "ridge", "10859": "feed", "10860": "ression", "10861": "Ġpersons", "10862": "VM", "10863": "ega", "10864": "_BIT", "10865": "According", "10866": "acked", "10867": "Ġdollars", "10868": "_loss", "10869": "ĠCost", "10870": "Notification", "10871": "Ġprostit", "10872": "Ġauthority", "10873": ".rec", "10874": "Ġspokes", "10875": "ĠToday", "10876": "istant", "10877": "ĠHead", "10878": "âĢĿ.", "10879": "ertainment", "10880": "cean", "10881": "culate", "10882": "Ġven", "10883": "However", "10884": "_arr", "10885": "Ġtokens", "10886": "Graph", "10887": "ĠJud", "10888": "ĠVirgin", "10889": "ĠSerial", "10890": "unning", "10891": "Mutable", "10892": "agers", "10893": ".csv", "10894": "Ġdeveloping", "10895": "Ġinstructions", "10896": "Ġpromise", "10897": "Ġrequested", "10898": "_encode", "10899": "/\"", "10900": "ĠIcon", "10901": "uilt", "10902": "-day", "10903": "Ġintelligence", "10904": ".IS", "10905": "ĠObservable", "10906": "ĠHard", "10907": "Bool", "10908": "idential", "10909": ".Anchor", "10910": "Ġselling", "10911": "CI", "10912": "AGES", "10913": "tle", "10914": "bur", "10915": "UFFER", "10916": "RY", "10917": "Ġbigger", "10918": "Ġrat", "10919": "Ġfamous", "10920": "Ġtypename", "10921": "Ġexplained", "10922": "Ġnuclear", "10923": "-N", "10924": "Ġcrisis", "10925": "ĠEnter", "10926": "Ġanswers", "10927": "/${", "10928": "/pl", "10929": "Ġsequ", "10930": "_next", "10931": "mask", "10932": "Ġstanding", "10933": "Ġplenty", "10934": "ĠCross", "10935": "ĉret", "10936": "dro", "10937": "ĠCast", "10938": "=true", "10939": "ĠChris", "10940": "icio", "10941": "ĠMike", "10942": "Decimal", "10943": "addComponent", "10944": "Len", "10945": "Ġcock", "10946": "Ġ#{", "10947": "URN", "10948": "<tr", "10949": "Ġauthorities", "10950": "Resources", "10951": "-H", "10952": "Bottom", "10953": "_qu", "10954": "puter", "10955": "esterday", "10956": "Dispatch", "10957": "since", "10958": "Ġfamiliar", "10959": ",i", "10960": "VC", "10961": "Ġment", "10962": ",C", "10963": "Ġfreedom", "10964": "Ġroutes", "10965": "ĠBuy", "10966": "Ġcommands", "10967": "Ġmesh", "10968": "/C", "10969": "ĠSettings", "10970": "-style", "10971": "Ġwitness", "10972": "Ġcle", "10973": "Ġunion", "10974": "efault", "10975": "aret", "10976": "Ġthoughts", "10977": "Ġ----", "10978": "_process", "10979": "_us", "10980": "ingly", "10981": "UES", "10982": "Touch", "10983": "ĠÐ¼", "10984": "_open", "10985": "ĠVec", "10986": "Ġreward", "10987": ".Click", "10988": "/:", "10989": "Ġnie", "10990": "Changes", "10991": "Month", "10992": "ï¼Ł", "10993": "Ġexecution", "10994": "Ġbeach", "10995": "(Integer", "10996": "ĉa", "10997": "/'", "10998": ".FontStyle", "10999": "Ġabort", "11000": "ĠSingle", "11001": "(isset", "11002": "Ġdp", "11003": "Ġ}}</", "11004": "ĠMa", "11005": ".Rows", "11006": "ĠPet", "11007": "%)", "11008": "rand", "11009": "Rule", "11010": "Ġhel", "11011": "RITE", "11012": "Ġquiet", "11013": "Ġratio", "11014": "ĠCONDITIONS", "11015": "osoph", "11016": "ĠIL", "11017": "Ġadvent", "11018": "cap", "11019": ";</", "11020": "ĠUSB", "11021": "Driver", "11022": "Ġours", "11023": "ĠJohnson", "11024": ".K", "11025": "_delete", "11026": ".q", "11027": "ĉstr", "11028": "/common", "11029": "ĉstring", "11030": "ĠPDF", "11031": "acts", "11032": ".Action", "11033": "ĠQuery", "11034": ".response", "11035": "ĠGirl", "11036": "Ġprocesses", "11037": "<Integer", "11038": "imo", "11039": "Ġadds", "11040": "Ġentirely", "11041": "Ġwash", "11042": "/************************************************************************", "11043": "Ġanimated", "11044": "Ġprofit", "11045": "encing", "11046": "/S", "11047": "ĠSym", "11048": "Ġmanual", "11049": "Download", "11050": "Ġ(!$", "11051": "Ġmotion", "11052": "webpack", "11053": "-bottom", "11054": "Ġgratuit", "11055": "PG", "11056": "(:,", "11057": "Ġera", "11058": "Ġho", "11059": "ĠJim", "11060": "quir", "11061": "ĠBASIS", "11062": "Ã¡n", "11063": "DER", "11064": "Ġexpensive", "11065": "_co", "11066": "Bounds", "11067": "Well", "11068": "ĠDemocratic", "11069": "ĠâĨĴ", "11070": ".Rem", "11071": "_SY", "11072": "names", "11073": "ĠVi", "11074": "Ġisinstance", "11075": "\\\">", "11076": "Ġ*=", "11077": "ĠPS", "11078": "Ġdangerous", "11079": "[p", "11080": "OME", "11081": "Other", "11082": "ĠStringBuilder", "11083": "Points", "11084": "heading", "11085": "Ġcurrency", "11086": "Ġpercentage", "11087": "_API", "11088": "Ġclassic", "11089": "thead", "11090": "ĠMO", "11091": "FE", "11092": "Idx", "11093": "await", "11094": "ĠÃ¨", "11095": "Ġaccident", "11096": "Ġvariant", "11097": "Ġmyst", "11098": "ĠLand", "11099": "ĠBre", "11100": "Ġharm", "11101": "ĠAcc", "11102": "Ġcharged", "11103": "iones", "11104": "Visibility", "11105": "arry", "11106": "ĠLanguage", "11107": "Ġwalking", "11108": "ifer", "11109": "Ġleadership", "11110": ".From", "11111": "ynam", "11112": "Ġtimestamp", "11113": "ipt", "11114": "ĠHas", "11115": "REFER", "11116": "ĠIts", "11117": "Ġlistener", "11118": "UTE", "11119": "_description", "11120": "Ġexperiences", "11121": "Ġcreates", "11122": "RS", "11123": "cart", "11124": "black", "11125": "Ġchoices", "11126": "war", "11127": "Ġ'''", "11128": "Ġordered", "11129": "Ġevening", "11130": "Ġpil", "11131": "Ġtun", "11132": "ĠBad", "11133": "(app", "11134": "random", "11135": "Ġexplicit", "11136": "Ġarrived", "11137": "Ġfly", "11138": "Ġeconom", "11139": "-mail", "11140": "Ġlists", "11141": "Ġarchitect", "11142": "ĠPay", "11143": "Ġds", "11144": "ĠSol", "11145": "Ġvehicles", "11146": "Hz", "11147": "-com", "11148": "Ġking", "11149": "_equal", "11150": "ĠHelp", "11151": "Ġabuse", "11152": "Ġextr", "11153": "Ġchemical", "11154": "Ġorient", "11155": "Ġbreath", "11156": "ĠSpace", "11157": "(element", "11158": "wait", "11159": "DED", "11160": "igma", "11161": "Ġentr", "11162": "Ġsob", "11163": "-name", "11164": "Ġaffected", "11165": "ika", "11166": "Ġcoal", "11167": "_work", "11168": "Ġhundreds", "11169": "Ġpolitics", "11170": "subject", "11171": "Ġconsumer", "11172": "ANGE", "11173": "Ġrepeated", "11174": "Send", "11175": "Ġ#[", "11176": "Ġprotocol", "11177": "Ġleads", "11178": "useum", "11179": "Every", "11180": "Import", "11181": "(count", "11182": "Ġchallenges", "11183": "Ġnovel", "11184": "Ġdepart", "11185": "bits", "11186": ".Current", "11187": "Ġ`${", "11188": "oting", "11189": "(\\", "11190": "Ġcreative", "11191": "Ġbuff", "11192": "Ġintroduced", "11193": "usic", "11194": "modules", "11195": "Are", "11196": "-doc", "11197": "language", "11198": "_cache", "11199": "Ġtod", "11200": "?></", "11201": "omething", "11202": "Ġhun", "11203": "aters", "11204": "Intent", "11205": "Ġimplemented", "11206": "ĠCase", "11207": "Children", "11208": "Ġnotification", "11209": "Renderer", "11210": "Wrapper", "11211": "Objects", "11212": "tl", "11213": ".Contains", "11214": "Plugin", "11215": ".row", "11216": "Ġforg", "11217": "Ġpermit", "11218": "Ġtargets", "11219": "ĠIF", "11220": "Ġtip", "11221": "sex", "11222": "Ġsupports", "11223": "Ġfold", "11224": "photo", "11225": "Ġgoogle", "11226": "$('#", "11227": "Ġsharing", "11228": "Ġgoods", "11229": "vs", "11230": "ĠDan", "11231": "Rate", "11232": "ĠMartin", "11233": "Ġmanner", "11234": "lie", "11235": ".The", "11236": "Internal", "11237": "ĠCONTR", "11238": "Mock", "11239": "RIGHT", "11240": "Ġ'{", "11241": "Ġcontrols", "11242": "Mat", "11243": "Ġmand", "11244": "Ġextended", "11245": "Ok", "11246": "Ġembed", "11247": "Ġplanet", "11248": "ĠNon", "11249": "-ch", "11250": ")\",", "11251": "epar", "11252": "Ġbelieved", "11253": "ĠEnvironment", "11254": "ĠFriend", "11255": "-res", "11256": "Ġhandling", "11257": "nic", "11258": "-level", "11259": "scri", "11260": "Xml", "11261": "BE", "11262": "ungen", "11263": "Ġalter", "11264": "[idx", "11265": "Pop", "11266": "cam", "11267": "Ġ(((", "11268": "Ġshipping", "11269": "Ġbattery", "11270": "iddleware", "11271": "MC", "11272": "Ġimpl", "11273": "otation", "11274": "ĠLab", "11275": "<form", "11276": "ĉname", "11277": "ĠGames", "11278": "ray", "11279": "Extra", "11280": "Two", "11281": "(player", "11282": "ĠLes", "11283": "Â°", "11284": "Ġcharset", "11285": "Ġjourney", "11286": "eting", "11287": "âĶ", "11288": "Ġdin", "11289": "Ġperman", "11290": "Ġsolve", "11291": "Ġlaunched", "11292": "Ġnine", "11293": "Ġsending", "11294": "Ġtelling", "11295": ".password", "11296": "ĠMatrix", "11297": "eric", "11298": "Ġgrab", "11299": ".u", "11300": "ĠLibrary", "11301": "Ġdebt", "11302": "INK", "11303": ".findViewById", "11304": "Ġfrequency", "11305": ".ad", "11306": "_TEST", "11307": "Ġnegot", "11308": "ĠAfrican", "11309": "sender", "11310": "Å¡", "11311": "Global", "11312": "Ġexperts", "11313": "Ġdepending", "11314": "gray", "11315": "Ġjudge", "11316": "Ġsentence", "11317": "losure", "11318": "Ac", "11319": "Ġtrace", "11320": "Edge", "11321": "Ġfriendly", "11322": "Ġconcerned", "11323": "blog", "11324": "Ġclaimed", "11325": "}'", "11326": "integer", "11327": "_tree", "11328": "ĉcontinue", "11329": "xi", "11330": "Ġaccepted", "11331": "_one", "11332": "ĠEducation", "11333": "ublished", "11334": "gon", "11335": "appoint", "11336": "outs", "11337": "Ġmining", "11338": "Ġsongs", "11339": "Ġherself", "11340": "Ġgranted", "11341": "Ġpassion", "11342": "ĠLake", "11343": "Ġloan", "11344": "uent", "11345": "chant", "11346": "Ġdetailed", "11347": "except", "11348": "_cmd", "11349": "ĠHE", "11350": "Related", "11351": "zt", "11352": "Ġspecifically", "11353": "Static", "11354": "Ġcarried", "11355": "ANS", "11356": "\\\":", "11357": "Created", "11358": "Ġcul", "11359": "]-", "11360": "_api", "11361": "FP", "11362": "Ġsitting", "11363": "Ġ\"\")", "11364": "ĉgoto", "11365": "ĠEqu", "11366": "Ġassault", "11367": "kins", "11368": "ancer", "11369": "ogen", "11370": "Ġvoters", "11371": "ĠProt", "11372": "Descriptor", "11373": "ãĥ¼", "11374": ".Assert", "11375": "bsites", "11376": "oster", "11377": "-menu", "11378": "Ġarms", "11379": ".Client", "11380": ".background", "11381": "avity", "11382": "Ġvul", "11383": "_MASK", "11384": "Ġhousing", "11385": "Ġbear", "11386": "_iter", "11387": "pired", "11388": "Ġmarkets", "11389": "ĠStudent", "11390": "Ġticket", "11391": "Ġmillions", "11392": "flater", "11393": ")=", "11394": "Ġrecover", "11395": "ĠForce", "11396": "ĠBoth", "11397": "Ġvictim", "11398": "ĠDisc", "11399": "report", "11400": "Ġfourth", "11401": "ĠAssembly", "11402": "/user", "11403": "NullOr", "11404": "textarea", "11405": "Ġath", "11406": "Ġ([", "11407": "Ġchannels", "11408": "ĠJustice", "11409": "choice", "11410": "LOBAL", "11411": "exec", "11412": "emale", "11413": "Ġelem", "11414": "_le", "11415": "Ġresponsibility", "11416": "ĠTw", "11417": "ICATION", "11418": "Ġelseif", "11419": "Ġfo", "11420": "asts", "11421": "Ġtreated", "11422": "sen", "11423": "ĠVict", "11424": "sumer", "11425": "_BASE", "11426": "Ġast", "11427": ">{{", "11428": "ĠResource", "11429": "ĠStandard", "11430": "ĠPrem", "11431": "updated", "11432": "ivalent", "11433": "Ġassets", "11434": "_temp", "11435": "Ġinterests", "11436": "Ġhardware", "11437": "ĠRom", "11438": "ĠShare", "11439": "Ġ*,", "11440": "ĠTake", "11441": "ĠImages", "11442": "_CHECK", "11443": "(typeof", "11444": "ĠJun", "11445": "\\<^", "11446": "Ġliqu", "11447": "Ġworst", "11448": "ymbols", "11449": "ĉĉĉĠĠĠ", "11450": "Ġdrivers", "11451": "ĠDocument", "11452": "eno", "11453": "ĠTechnology", "11454": "Ġapproved", "11455": "umps", "11456": "Ġsnow", "11457": "formance", "11458": "_ASSERT", "11459": "uits", "11460": "ÙĨ", "11461": "Ġdifferences", "11462": ".Visible", "11463": "ĉĉĉčĊ", "11464": "ĠPs", "11465": "_fetch", "11466": "Ġtodo", "11467": "Ġsel", "11468": "urers", "11469": "invalid", "11470": "Ġtweet", "11471": "VEL", "11472": "Ġresearchers", "11473": "Ġsprintf", "11474": "ĠRO", "11475": "Ġpel", "11476": ".Trans", "11477": "Ġillegal", "11478": "dialog", "11479": "smarty", "11480": "lg", "11481": "_MIN", "11482": "Ġhero", "11483": "final", "11484": "Ġpp", "11485": ".Le", "11486": "Ġci", "11487": "ĉRT", "11488": "Ġsuggested", "11489": "pdf", "11490": "aching", "11491": "ĠRo", "11492": "ĠProperties", "11493": "ĠSi", "11494": "Ġbuying", "11495": "Ġmu", "11496": "Ġlands", "11497": "ifiers", "11498": "ĠFILE", "11499": "ROUP", "11500": "Ġholder", "11501": "ĠSon", "11502": "Ġsympt", "11503": ".route", "11504": ")?", "11505": "Ġargc", "11506": "Ġfort", "11507": "Ġcasino", "11508": "_category", "11509": "Ġforum", "11510": "prefix", "11511": "apture", "11512": "Tube", "11513": "ems", "11514": "imize", "11515": "Ġnue", "11516": "aus", "11517": "course", "11518": "ATOR", "11519": "()),", "11520": "Advertis", "11521": "INGS", "11522": "Ġacknow", "11523": "ĠKorea", "11524": "pling", "11525": "Ġworker", "11526": "PLIED", "11527": "hal", "11528": "ĠRichard", "11529": "Elements", "11530": "ĉĉĉĠ", "11531": "star", "11532": "Ġrelationships", "11533": "Ġcheap", "11534": "ACH", "11535": "ĠXML", "11536": ",&", "11537": "ĠLouis", "11538": "Ġride", "11539": "_FAIL", "11540": "Ġchunk", "11541": "[s", "11542": "_OUT", "11543": "Ġchosen", "11544": "_[", "11545": "/(", "11546": "ĠJeff", "11547": "_sl", "11548": "priv", "11549": "ĠCanadian", "11550": "Ġunable", "11551": "_FLAG", "11552": "Ġnos", "11553": "high", "11554": "Ġlift", "11555": "fun", "11556": "(){", "11557": "elly", "11558": "yclerView", "11559": "_as", "11560": "_LIST", "11561": "Ġradi", "11562": ".getValue", "11563": "ĠAngeles", "11564": "ĠSpan", "11565": "_instance", "11566": "itors", "11567": "Ġmigration", "11568": "AK", "11569": "Oh", "11570": "Â®", "11571": ".selected", "11572": "ĠGT", "11573": "Ġadvance", "11574": "ĠStyle", "11575": ".DataGridView", "11576": "ection", "11577": "Ñİ", "11578": "pio", "11579": "rog", "11580": "Ġshopping", "11581": "ĠRect", "11582": "Illuminate", "11583": "OU", "11584": "ĉarray", "11585": "Ġsubstantial", "11586": "Ġpregn", "11587": "Ġpromote", "11588": "IEW", "11589": ".Layout", "11590": "Ġsigns", "11591": "/.", "11592": "Ġletters", "11593": "Board", "11594": "ctrl", "11595": "\"\\", "11596": "ĠJones", "11597": "Ġvertex", "11598": "Ġja", "11599": "Ġaffili", "11600": "Ġwealth", "11601": "ĉdefault", "11602": "Ġsignificantly", "11603": "Ġec", "11604": "Ġxs", "11605": "actual", "11606": ".per", "11607": "_step", "11608": "anvas", "11609": "mac", "11610": "Ġtransl", "11611": "ĠĠĠĠĠĠĠĠĠĠĠĠĠĠĠĠĠĠĠĠĠĠĠĠĠĠĠĠĠĠĠĠĠĠĠĠĠĠĠĠĠĠĠĠĠĠĠĠĠĠĠĠĠĠĠĠĠĠĠ", "11612": "Iterator", "11613": "Ġoch", "11614": "agnostic", "11615": "ĠDuring", "11616": "ĠDEFAULT", "11617": "Ġtill", "11618": "Ġsignature", "11619": "Ġbird", "11620": "ĠOl", "11621": "ĠIr", "11622": "HS", "11623": "avatar", "11624": "ESSAGE", "11625": "Ġelev", "11626": "Ġmt", "11627": "ĠNav", "11628": "Ġrelax", "11629": "Ġplate", "11630": "ITEM", "11631": "(date", "11632": ".not", "11633": "Ġgrade", "11634": "iences", "11635": "High", "11636": "ĠDIS", "11637": "disabled", "11638": "QUI", "11639": "Ġnoise", "11640": "aux", "11641": "ĠUP", "11642": "osa", "11643": "Ġvoc", "11644": "Ġ))", "11645": "ocom", "11646": "_OFF", "11647": "ĠDb", "11648": "Lock", "11649": ".eclipse", "11650": ",d", "11651": "ĠDraw", "11652": "Ġ\"(", "11653": "Ġvisited", "11654": "ĠâĪ", "11655": "Ġsucceed", "11656": "Ġimpossible", "11657": "aire", "11658": "ĠTurn", "11659": "Ġdish", "11660": "FG", "11661": "Ġsensor", "11662": "ANN", "11663": "aba", "11664": "Ġsurg", "11665": "Ġfp", "11666": "_an", "11667": "-J", "11668": "-G", "11669": "ĠJob", "11670": "Convert", "11671": "ĠKEY", "11672": "Ġauthors", "11673": "_server", "11674": "\\r", "11675": "Ġ-*-", "11676": "flex", "11677": "Ġsoc", "11678": "Ret",
[...]
